#ifndef NETWORK_MODEL_H
#define NETWORK_MODEL_H

const unsigned int network_model_dim1 = 5200;

const unsigned char network_model[5200] = {
    0x1c, 0x00, 0x00, 0x00, 0x54, 0x46, 0x4c, 0x33, 0x14, 0x00, 0x20, 0x00, 
    0x1c, 0x00, 0x18, 0x00, 0x14, 0x00, 0x10, 0x00, 0x0c, 0x00, 0x00, 0x00, 
    0x08, 0x00, 0x04, 0x00, 0x14, 0x00, 0x00, 0x00, 0x1c, 0x00, 0x00, 0x00, 
    0x8c, 0x00, 0x00, 0x00, 0xe4, 0x00, 0x00, 0x00, 0x24, 0x0e, 0x00, 0x00, 
    0x34, 0x0e, 0x00, 0x00, 0xec, 0x13, 0x00, 0x00, 0x03, 0x00, 0x00, 0x00, 
    0x01, 0x00, 0x00, 0x00, 0x10, 0x00, 0x00, 0x00, 0x00, 0x00, 0x0a, 0x00, 
    0x10, 0x00, 0x0c, 0x00, 0x08, 0x00, 0x04, 0x00, 0x0a, 0x00, 0x00, 0x00, 
    0x0c, 0x00, 0x00, 0x00, 0x1c, 0x00, 0x00, 0x00, 0x38, 0x00, 0x00, 0x00, 
    0x0f, 0x00, 0x00, 0x00, 0x73, 0x65, 0x72, 0x76, 0x69, 0x6e, 0x67, 0x5f, 
    0x64, 0x65, 0x66, 0x61, 0x75, 0x6c, 0x74, 0x00, 0x01, 0x00, 0x00, 0x00, 
    0x04, 0x00, 0x00, 0x00, 0x9c, 0xff, 0xff, 0xff, 0x0a, 0x00, 0x00, 0x00, 
    0x04, 0x00, 0x00, 0x00, 0x07, 0x00, 0x00, 0x00, 0x64, 0x65, 0x6e, 0x73, 
    0x65, 0x5f, 0x32, 0x00, 0x01, 0x00, 0x00, 0x00, 0x04, 0x00, 0x00, 0x00, 
    0xbe, 0xf1, 0xff, 0xff, 0x04, 0x00, 0x00, 0x00, 0x07, 0x00, 0x00, 0x00, 
    0x69, 0x6e, 0x70, 0x75, 0x74, 0x5f, 0x31, 0x00, 0x02, 0x00, 0x00, 0x00, 
    0x34, 0x00, 0x00, 0x00, 0x04, 0x00, 0x00, 0x00, 0xdc, 0xff, 0xff, 0xff, 
    0x0d, 0x00, 0x00, 0x00, 0x04, 0x00, 0x00, 0x00, 0x13, 0x00, 0x00, 0x00, 
    0x43, 0x4f, 0x4e, 0x56, 0x45, 0x52, 0x53, 0x49, 0x4f, 0x4e, 0x5f, 0x4d, 
    0x45, 0x54, 0x41, 0x44, 0x41, 0x54, 0x41, 0x00, 0x08, 0x00, 0x0c, 0x00, 
    0x08, 0x00, 0x04, 0x00, 0x08, 0x00, 0x00, 0x00, 0x0c, 0x00, 0x00, 0x00, 
    0x04, 0x00, 0x00, 0x00, 0x13, 0x00, 0x00, 0x00, 0x6d, 0x69, 0x6e, 0x5f, 
    0x72, 0x75, 0x6e, 0x74, 0x69, 0x6d, 0x65, 0x5f, 0x76, 0x65, 0x72, 0x73, 
    0x69, 0x6f, 0x6e, 0x00, 0x0e, 0x00, 0x00, 0x00, 0x3c, 0x0d, 0x00, 0x00, 
    0x34, 0x0d, 0x00, 0x00, 0x04, 0x0d, 0x00, 0x00, 0xec, 0x0c, 0x00, 0x00, 
    0x9c, 0x0c, 0x00, 0x00, 0x0c, 0x03, 0x00, 0x00, 0xfc, 0x00, 0x00, 0x00, 
    0xac, 0x00, 0x00, 0x00, 0xa4, 0x00, 0x00, 0x00, 0x9c, 0x00, 0x00, 0x00, 
    0x94, 0x00, 0x00, 0x00, 0x8c, 0x00, 0x00, 0x00, 0x6c, 0x00, 0x00, 0x00, 
    0x04, 0x00, 0x00, 0x00, 0x6a, 0xf2, 0xff, 0xff, 0x04, 0x00, 0x00, 0x00, 
    0x58, 0x00, 0x00, 0x00, 0x0c, 0x00, 0x00, 0x00, 0x08, 0x00, 0x0e, 0x00, 
    0x08, 0x00, 0x04, 0x00, 0x08, 0x00, 0x00, 0x00, 0x10, 0x00, 0x00, 0x00, 
    0x28, 0x00, 0x00, 0x00, 0x00, 0x00, 0x06, 0x00, 0x08, 0x00, 0x04, 0x00, 
    0x06, 0x00, 0x00, 0x00, 0x04, 0x00, 0x00, 0x00, 0x01, 0x00, 0x00, 0x00, 
    0xea, 0x03, 0x00, 0x00, 0x00, 0x00, 0x0a, 0x00, 0x10, 0x00, 0x0c, 0x00, 
    0x08, 0x00, 0x04, 0x00, 0x0a, 0x00, 0x00, 0x00, 0x02, 0x00, 0x00, 0x00, 
    0x02, 0x00, 0x00, 0x00, 0x04, 0x00, 0x00, 0x00, 0x06, 0x00, 0x00, 0x00, 
    0x32, 0x2e, 0x31, 0x35, 0x2e, 0x30, 0x00, 0x00, 0xce, 0xf2, 0xff, 0xff, 
    0x04, 0x00, 0x00, 0x00, 0x10, 0x00, 0x00, 0x00, 0x31, 0x2e, 0x35, 0x2e, 
    0x30, 0x00, 0x00, 0x00, 0x00, 0x00, 0x00, 0x00, 0x00, 0x00, 0x00, 0x00, 
    0xdc, 0xed, 0xff, 0xff, 0xe0, 0xed, 0xff, 0xff, 0xe4, 0xed, 0xff, 0xff, 
    0xe8, 0xed, 0xff, 0xff, 0xfa, 0xf2, 0xff, 0xff, 0x04, 0x00, 0x00, 0x00, 
    0x40, 0x00, 0x00, 0x00, 0x11, 0x1b, 0x65, 0x3f, 0xa0, 0xdc, 0x78, 0x3f, 
    0x79, 0x8e, 0x4b, 0x3e, 0xf6, 0xae, 0x5b, 0x3f, 0xc3, 0x09, 0xbe, 0xbe, 
    0xaf, 0xf8, 0x5d, 0xbf, 0x0b, 0xf0, 0xdc, 0xbe, 0x31, 0x6b, 0x60, 0x3f, 
    0x59, 0x80, 0x3a, 0xbf, 0x84, 0xc1, 0xb8, 0xbe, 0xea, 0xbb, 0x74, 0xbf, 
    0x4f, 0x07, 0x3d, 0xbd, 0x9a, 0x0a, 0xb1, 0x3e, 0x0f, 0x9b, 0xeb, 0x3d, 
    0x46, 0xf3, 0x41, 0x3f, 0x01, 0x74, 0x29, 0xbf, 0x46, 0xf3, 0xff, 0xff, 
    0x04, 0x00, 0x00, 0x00, 0x00, 0x02, 0x00, 0x00, 0x6d, 0xa9, 0x6f, 0xbe, 
    0x0b, 0x65, 0xd1, 0x3c, 0x80, 0x9e, 0x56, 0xbe, 0xe0, 0x5a, 0xde, 0xbd, 
    0x20, 0x01, 0xce, 0x3d, 0x35, 0xe0, 0x60, 0x3d, 0xff, 0xa1, 0x97, 0xbe, 
    0x69, 0x5c, 0x83, 0x3e, 0xcc, 0x20, 0x11, 0xbe, 0x04, 0x6d, 0x0e, 0x3f, 
    0x0e, 0xa8, 0x0d, 0x3f, 0xbb, 0x25, 0xab, 0x3e, 0x18, 0xc9, 0x07, 0xbe, 
    0xdf, 0x8a, 0xf3, 0xbe, 0x10, 0xe0, 0x58, 0xbf, 0xb7, 0x5d, 0xb0, 0x3c, 
    0x37, 0x3e, 0xca, 0x3e, 0x95, 0xd2, 0x18, 0xbe, 0x07, 0x18, 0xeb, 0xbe, 
    0x91, 0xa7, 0xad, 0xbe, 0x38, 0x3b, 0x69, 0xbf, 0x6d, 0x55, 0xc2, 0x3e, 
    0x57, 0x95, 0x1a, 0xbe, 0xec, 0x5d, 0x68, 0xbd, 0x66, 0x00, 0x16, 0xbf, 
    0x8d, 0x73, 0xf0, 0xbd, 0x5f, 0x08, 0x24, 0xbf, 0xbe, 0x4a, 0xd3, 0x3e, 
    0xbb, 0xcf, 0xf5, 0xbe, 0x71, 0xa1, 0x3b, 0x3e, 0x4c, 0x2d, 0x1c, 0x3f, 
    0xc0, 0xe3, 0x9a, 0xbe, 0x73, 0xee, 0x7e, 0x3b, 0xb6, 0xf7, 0x61, 0xbe, 
    0x7b, 0x23, 0xaa, 0xbe, 0xb1, 0x53, 0xe0, 0x3e, 0xf3, 0x25, 0x14, 0x3f, 
    0xa0, 0xc3, 0x7a, 0xbe, 0x09, 0xb3, 0xc0, 0xbc, 0x65, 0xbd, 0x8e, 0x3e, 
    0x4d, 0xf8, 0xa5, 0xbc, 0x46, 0x84, 0x7d, 0x3e, 0x4f, 0x3a, 0x08, 0x3f, 
    0xe5, 0x19, 0xeb, 0x3e, 0xf2, 0xb9, 0xfc, 0x3c, 0x36, 0x40, 0xbe, 0xbe, 
    0xc8, 0xcf, 0x3f, 0xbf, 0x8a, 0x61, 0xc3, 0xbd, 0x76, 0xf1, 0x17, 0x3d, 
    0xd9, 0x6a, 0x03, 0xbf, 0x31, 0x14, 0x86, 0x3d, 0x7f, 0xca, 0xbe, 0x3e, 
    0x0f, 0x50, 0x8e, 0xbe, 0xf0, 0x28, 0x32, 0x3e, 0xe8, 0x32, 0xfd, 0xbe, 
    0xf7, 0xe4, 0x1b, 0xbf, 0x38, 0x77, 0xba, 0x3d, 0xd8, 0xea, 0xf3, 0x3e, 
    0x23, 0xb3, 0x1f, 0xbf, 0xb0, 0x7d, 0xff, 0x3e, 0x3b, 0x6a, 0xa2, 0xbe, 
    0xc4, 0x4c, 0x0a, 0x3f, 0x20, 0x7a, 0x04, 0x3f, 0x04, 0x3c, 0x99, 0xbe, 
    0x66, 0xe6, 0xd3, 0xbd, 0x48, 0x03, 0x8a, 0xbd, 0x63, 0x69, 0x02, 0xbf, 
    0x9f, 0x0b, 0x79, 0x3e, 0x92, 0x5e, 0x2c, 0x3e, 0xcb, 0x26, 0x03, 0x3f, 
    0xcf, 0x67, 0xa9, 0x3e, 0xad, 0x0c, 0xd0, 0x3e, 0xed, 0xf9, 0xb7, 0x3e, 
    0xe3, 0xf3, 0x88, 0x3d, 0x76, 0xd4, 0x9e, 0xbe, 0x9d, 0xdb, 0x51, 0xbe, 
    0x78, 0x7f, 0x14, 0x3f, 0xb3, 0x43, 0xf3, 0x3e, 0x4c, 0x1c, 0xe7, 0x3e, 
    0x51, 0xd5, 0xc6, 0x3e, 0x98, 0xea, 0xab, 0x3e, 0x8e, 0x23, 0xbe, 0x3e, 
    0x7e, 0x15, 0xfa, 0xbe, 0x9f, 0x41, 0x2e, 0xbf, 0xe5, 0xbd, 0xe5, 0x3e, 
    0x60, 0x58, 0xff, 0x3e, 0x3d, 0x21, 0x0e, 0x3f, 0x3b, 0x93, 0xce, 0x3e, 
    0xd8, 0x1c, 0x9b, 0xbd, 0xd2, 0xde, 0xd3, 0xbe, 0x18, 0xd8, 0x43, 0x3e, 
    0x9d, 0x5f, 0x89, 0xbe, 0xd8, 0xeb, 0x95, 0x3e, 0xad, 0x95, 0xb0, 0x3e, 
    0xca, 0xc4, 0x87, 0xbd, 0x5d, 0x6e, 0xc4, 0x3e, 0x24, 0xcd, 0x8e, 0x3e, 
    0x1c, 0x63, 0x19, 0x3f, 0xe4, 0x96, 0x81, 0x3c, 0xc8, 0x0b, 0xbf, 0xbe, 
    0xd7, 0x4c, 0x71, 0x3e, 0x5e, 0x92, 0xda, 0x3e, 0x7e, 0x59, 0x1b, 0x3e, 
    0x82, 0xad, 0xd6, 0x3e, 0x37, 0x9a, 0x17, 0x3f, 0x2f, 0xc6, 0xb1, 0xbe, 
    0xe1, 0xca, 0xcd, 0x3e, 0xd3, 0xbc, 0x2e, 0xbf, 0x7a, 0x31, 0xf4, 0x3e, 
    0x35, 0x74, 0xd9, 0x3e, 0x7d, 0x22, 0xa6, 0xbe, 0xeb, 0xe2, 0xdc, 0x3e, 
    0xae, 0x71, 0xdb, 0x3e, 0x8a, 0x98, 0x0a, 0xbf, 0x72, 0xdb, 0x7a, 0xbd, 
    0x3d, 0x33, 0xb3, 0x3c, 0x3f, 0xb8, 0x09, 0x3e, 0x82, 0x63, 0x20, 0x3d, 
    0x06, 0x27, 0x71, 0x3e, 0x14, 0x6c, 0x1b, 0xbf, 0xc1, 0xf9, 0x2c, 0xbf, 
    0x5a, 0x0d, 0x55, 0x3e, 0x20, 0x1f, 0x07, 0xbf, 0x98, 0x82, 0xcf, 0x3e, 
    0xc7, 0x49, 0x1a, 0xbf, 0x6f, 0x9f, 0x01, 0x3f, 0x01, 0xe2, 0xcf, 0x3d, 
    0xfc, 0xa7, 0x0f, 0xbe, 0x52, 0xf5, 0xff, 0xff, 0x04, 0x00, 0x00, 0x00, 
    0x80, 0x09, 0x00, 0x00, 0xa2, 0xf6, 0x80, 0xbd, 0x40, 0xea, 0x78, 0x3e, 
    0xa8, 0xde, 0x9d, 0x3d, 0xb2, 0xf0, 0x6e, 0xbe, 0x96, 0x4a, 0xea, 0xbd, 
    0x40, 0xb0, 0xad, 0xbb, 0x30, 0x41, 0x88, 0xbe, 0x0e, 0xbe, 0x0e, 0xbe, 
    0xb1, 0x17, 0x4d, 0xbe, 0xea, 0xfd, 0x7f, 0x3d, 0xa1, 0x26, 0x81, 0xbe, 
    0x4d, 0x75, 0x94, 0x3d, 0xc1, 0xbc, 0x07, 0x3e, 0xff, 0xff, 0x90, 0xbe, 
    0x93, 0x62, 0x60, 0x3d, 0xaf, 0xa5, 0x52, 0xbe, 0xe1, 0xea, 0x91, 0x3e, 
    0x44, 0x57, 0x78, 0xbe, 0xbd, 0xc2, 0x8e, 0xbe, 0xcd, 0x4b, 0x3a, 0xbe, 
    0xfd, 0x96, 0xa8, 0xbe, 0x1f, 0x3b, 0x4d, 0xbe, 0x27, 0xf4, 0xd1, 0x3d, 
    0xbd, 0x10, 0x8a, 0x3e, 0x5c, 0x27, 0x05, 0x3e, 0x29, 0x2b, 0x00, 0x3e, 
    0x19, 0x2c, 0xb0, 0x3d, 0x78, 0x8c, 0x08, 0x3e, 0xc1, 0x50, 0x8c, 0xbe, 
    0x00, 0xdb, 0x23, 0x3e, 0x19, 0xc8, 0xe0, 0x3e, 0x3f, 0xb4, 0x1d, 0xbd, 
    0x2e, 0xe0, 0x91, 0xbc, 0x18, 0x33, 0x4b, 0x3e, 0xc7, 0xe3, 0x86, 0xbe, 
    0x04, 0x80, 0xc5, 0x3e, 0xf6, 0x43, 0xc4, 0x3e, 0xc5, 0xf1, 0x02, 0x3f, 
    0x5a, 0x72, 0x60, 0x3e, 0xc0, 0x34, 0xe3, 0xbc, 0x21, 0x77, 0x4a, 0x3e, 
    0x0f, 0x43, 0x4b, 0xbd, 0x8f, 0x82, 0x84, 0xbe, 0xf1, 0x8c, 0x39, 0x3c, 
    0x94, 0xdd, 0x6e, 0xbe, 0xc9, 0x24, 0xea, 0xbe, 0xdb, 0x05, 0x0e, 0x3e, 
    0xa3, 0x15, 0xd1, 0xbd, 0xf8, 0x8a, 0xc5, 0x3d, 0x93, 0x9a, 0x56, 0xbe, 
    0xc3, 0xc3, 0x12, 0x3e, 0x18, 0xba, 0xb8, 0xbd, 0x03, 0x58, 0x91, 0xbe, 
    0xa7, 0x32, 0xdc, 0x3d, 0x4d, 0x15, 0x66, 0x3d, 0x33, 0x68, 0x98, 0xbe, 
    0x55, 0x84, 0xf6, 0xbe, 0xd9, 0xfc, 0x02, 0xbf, 0xe3, 0x2f, 0x7f, 0xbe, 
    0x6e, 0x2a, 0x27, 0x3e, 0x40, 0x82, 0xe9, 0xbe, 0xcb, 0x27, 0xde, 0xbe, 
    0x8a, 0xc0, 0x85, 0xbc, 0x1c, 0x40, 0x25, 0x3e, 0x26, 0xbf, 0x03, 0x3d, 
    0xda, 0xa9, 0x12, 0x3b, 0x97, 0x15, 0x29, 0x3e, 0x29, 0x83, 0xd8, 0xbd, 
    0x2e, 0x11, 0x0f, 0xbd, 0xb5, 0xbd, 0x1e, 0x3c, 0x32, 0x2a, 0x94, 0xbe, 
    0x16, 0x8f, 0xdf, 0xbd, 0xaa, 0x7f, 0x8a, 0x3d, 0x0a, 0x8e, 0x86, 0xbe, 
    0xbd, 0xdc, 0x62, 0xbe, 0xc8, 0x39, 0xa6, 0x3e, 0xaa, 0x19, 0x31, 0xbd, 
    0x04, 0xfd, 0x63, 0x3e, 0x8c, 0xa6, 0x66, 0x3e, 0x70, 0x31, 0xc1, 0xbd, 
    0x2e, 0x70, 0xaf, 0xbc, 0xc5, 0xbe, 0xb8, 0x3d, 0x01, 0xe7, 0x10, 0x3e, 
    0x76, 0x3f, 0x05, 0x3e, 0xa6, 0xc4, 0x35, 0xbe, 0x22, 0x55, 0x40, 0x3d, 
    0x0b, 0x13, 0xae, 0x3d, 0xc4, 0x2b, 0x27, 0x3b, 0x14, 0x4a, 0x20, 0x3e, 
    0x7f, 0x87, 0x89, 0x3e, 0x3a, 0x7f, 0x83, 0x3e, 0xe3, 0xbf, 0x46, 0x3e, 
    0x0e, 0xcd, 0xdf, 0x3e, 0xc4, 0xa1, 0xb3, 0xbd, 0x40, 0x36, 0xe4, 0xbd, 
    0x11, 0x0b, 0x73, 0xbe, 0x81, 0xbc, 0x63, 0xbe, 0xbe, 0x33, 0xce, 0x3d, 
    0xcb, 0xd0, 0xcc, 0xbe, 0x11, 0xa1, 0xcc, 0xbd, 0xfc, 0x9d, 0x63, 0xbe, 
    0x6a, 0x38, 0xd5, 0xbc, 0xbb, 0xbc, 0x64, 0xbd, 0x3b, 0x8c, 0x6e, 0x3e, 
    0x2a, 0x21, 0x92, 0xbd, 0x0f, 0xdf, 0x26, 0x3e, 0x08, 0x9f, 0x99, 0x3d, 
    0xbd, 0x1b, 0x36, 0x3c, 0xfd, 0xa4, 0x5a, 0xbe, 0xe7, 0x81, 0xa7, 0xbd, 
    0x89, 0x37, 0x20, 0xbe, 0xc8, 0xe7, 0x2b, 0xbd, 0xd9, 0xbb, 0x0b, 0x3e, 
    0x17, 0x17, 0xd1, 0xbd, 0x7c, 0x74, 0x8b, 0xbd, 0xab, 0x94, 0xd4, 0x3e, 
    0xe3, 0x92, 0x76, 0x3e, 0x2c, 0x29, 0x12, 0x3e, 0x1c, 0x27, 0xcf, 0xbd, 
    0xde, 0x79, 0x16, 0xbe, 0x70, 0x8e, 0x00, 0x3f, 0x96, 0xa8, 0x17, 0x3e, 
    0x6b, 0xfc, 0x05, 0xbf, 0xcd, 0xd4, 0x68, 0xbd, 0xe6, 0xe8, 0xaf, 0x3e, 
    0x87, 0xd3, 0xcf, 0xbd, 0xab, 0x15, 0x9a, 0x3d, 0x9d, 0x2e, 0x94, 0xbe, 
    0x7d, 0xc5, 0xa4, 0xbd, 0x0c, 0x4b, 0x28, 0x3e, 0xd9, 0x20, 0xb2, 0x3e, 
    0x3f, 0xc4, 0xed, 0xbc, 0xfb, 0x3a, 0xf9, 0x3d, 0x36, 0x8d, 0x74, 0xbd, 
    0xed, 0x4a, 0x90, 0x3e, 0x86, 0x40, 0xfc, 0x3c, 0x52, 0xd6, 0x07, 0xbe, 
    0xf4, 0x44, 0x53, 0x3e, 0xee, 0x6e, 0x4c, 0xbb, 0x79, 0x9c, 0x68, 0x3e, 
    0x82, 0x71, 0xae, 0x3c, 0xd5, 0x9d, 0x1b, 0xbd, 0x74, 0x53, 0x79, 0xbe, 
    0x40, 0x84, 0xe7, 0xbe, 0x88, 0xdc, 0x11, 0x3e, 0x14, 0x69, 0x2a, 0x3e, 
    0xd1, 0x43, 0x8c, 0xbe, 0x0a, 0xab, 0x40, 0x3e, 0x38, 0x0e, 0x16, 0x3d, 
    0x44, 0x93, 0xaa, 0x3e, 0x51, 0x0d, 0x0c, 0x3e, 0x78, 0x80, 0x82, 0xbe, 
    0x1a, 0xdb, 0x9f, 0x3c, 0xcc, 0xb7, 0xaa, 0x3e, 0x09, 0x71, 0xc0, 0x3e, 
    0xdf, 0x0b, 0xfd, 0xbd, 0x7a, 0x35, 0x60, 0xbd, 0x6e, 0xff, 0x22, 0xbf, 
    0x50, 0x1b, 0xc7, 0xbe, 0x10, 0xbf, 0xbe, 0x3d, 0x2f, 0xaf, 0xde, 0xbe, 
    0xf1, 0x43, 0x88, 0xbc, 0x98, 0x67, 0xb0, 0xbe, 0x04, 0xb0, 0xb1, 0xbe, 
    0x48, 0xb7, 0x91, 0x3d, 0x97, 0xcf, 0x9e, 0xbe, 0xd2, 0xc8, 0xd8, 0xbe, 
    0xbe, 0x47, 0x4a, 0xbe, 0xcd, 0xb1, 0xa1, 0x3d, 0xd6, 0x19, 0xb6, 0xbe, 
    0x7b, 0x26, 0x85, 0xbe, 0x80, 0x25, 0x90, 0x3d, 0x12, 0x5d, 0xa4, 0xbd, 
    0x86, 0xe1, 0x5b, 0xbe, 0x52, 0x0a, 0x3f, 0xbe, 0xc2, 0x37, 0x55, 0xbe, 
    0xbe, 0x12, 0xb1, 0xbe, 0x1e, 0xe7, 0xcb, 0xbe, 0xcf, 0x42, 0x1f, 0xbe, 
    0x7f, 0x73, 0x0e, 0x3e, 0x31, 0x27, 0xe1, 0xbd, 0x11, 0x77, 0xa3, 0xbe, 
    0x88, 0xe3, 0x28, 0xbb, 0x91, 0x54, 0x80, 0x3e, 0x83, 0x83, 0xeb, 0x3d, 
    0xbd, 0x57, 0xc4, 0x3d, 0x3f, 0xab, 0xb9, 0xbd, 0xdb, 0x47, 0xc0, 0xbe, 
    0xa5, 0x39, 0xdd, 0xbe, 0x73, 0x6c, 0x4f, 0xbe, 0x9b, 0x74, 0x86, 0x3e, 
    0x30, 0xad, 0x2a, 0x3c, 0x9e, 0xa8, 0x2c, 0x3e, 0x03, 0xf8, 0x8a, 0x3e, 
    0x5c, 0xa2, 0xea, 0x3d, 0xb0, 0x37, 0x20, 0x3e, 0xdd, 0x18, 0xec, 0x3d, 
    0xc9, 0xe1, 0x0a, 0xbf, 0xce, 0x9e, 0x07, 0x3f, 0x4e, 0x63, 0x87, 0x3d, 
    0x2b, 0xab, 0x60, 0x3e, 0xcc, 0x37, 0x20, 0xbd, 0x2f, 0x81, 0xa4, 0x3e, 
    0x55, 0x91, 0x5c, 0x3e, 0xb7, 0x59, 0x88, 0xbd, 0x52, 0x00, 0xe2, 0x3d, 
    0x81, 0x2a, 0xae, 0xbe, 0x00, 0xc5, 0xc1, 0xbe, 0xdf, 0x1b, 0xd8, 0xba, 
    0x10, 0x16, 0x23, 0x3d, 0x4c, 0xce, 0x53, 0xbe, 0x21, 0x07, 0xdb, 0xbd, 
    0x55, 0x26, 0x9f, 0xbd, 0x60, 0xe5, 0xfa, 0xbe, 0x4d, 0x2d, 0x8a, 0x3c, 
    0xfc, 0xcf, 0x83, 0x3e, 0x3e, 0x20, 0x0a, 0xbd, 0xa5, 0x48, 0xb1, 0x3e, 
    0x46, 0x7c, 0x34, 0xbe, 0xa2, 0x2b, 0x26, 0xbe, 0x7c, 0x38, 0xc3, 0x3e, 
    0xb2, 0x82, 0xc6, 0x3d, 0x87, 0x81, 0x10, 0xbf, 0x05, 0xd6, 0xd6, 0x3d, 
    0xb6, 0x5c, 0xb7, 0xbe, 0x05, 0xa9, 0x0d, 0xbf, 0xad, 0x98, 0xcc, 0x3c, 
    0xe6, 0x6a, 0x4d, 0x3d, 0x23, 0x20, 0xf5, 0x3d, 0xb1, 0x04, 0xdf, 0x3e, 
    0x48, 0x1a, 0xa1, 0xbe, 0x31, 0x26, 0x15, 0x3e, 0xe1, 0x22, 0x08, 0xbf, 
    0x36, 0xe9, 0x43, 0xbd, 0xcc, 0xe6, 0xd7, 0xbe, 0xcc, 0xf3, 0xd8, 0xbe, 
    0x01, 0x1e, 0x00, 0x3e, 0x24, 0x1e, 0x08, 0xbf, 0xc9, 0x01, 0x0f, 0xbf, 
    0xcf, 0x21, 0x5a, 0xbe, 0x2c, 0xe7, 0x25, 0xbd, 0x59, 0x9e, 0xae, 0x3d, 
    0x5c, 0x8a, 0xc4, 0x3d, 0xa4, 0x47, 0xe9, 0xbe, 0x1a, 0x2e, 0xd1, 0xbe, 
    0x48, 0xbb, 0x0d, 0xbf, 0x97, 0xc6, 0xd5, 0xbe, 0x46, 0xb0, 0x70, 0x3e, 
    0xe8, 0xac, 0x2d, 0x3d, 0xb4, 0xd6, 0x74, 0xbd, 0x56, 0xf1, 0xd4, 0xbe, 
    0x85, 0x25, 0xd2, 0xbe, 0x8b, 0x5e, 0x48, 0xbd, 0x88, 0xa0, 0x8b, 0x3e, 
    0xf7, 0x9e, 0x1f, 0xbe, 0x55, 0xbd, 0x7b, 0xbe, 0x62, 0xe9, 0xba, 0x3e, 
    0xef, 0x89, 0x93, 0xbe, 0xaa, 0x49, 0x99, 0xbe, 0xc6, 0x87, 0x55, 0x3c, 
    0x26, 0x67, 0x01, 0x3e, 0x85, 0xe9, 0x66, 0xbd, 0xe2, 0x38, 0xe1, 0xbe, 
    0x29, 0xb6, 0x1c, 0x3e, 0xbf, 0x2a, 0xc3, 0x3e, 0xd2, 0x1f, 0x09, 0x3f, 
    0x2b, 0xa7, 0xd2, 0xbd, 0x9f, 0xa2, 0x26, 0xbe, 0xf8, 0x61, 0xc3, 0x3e, 
    0x6b, 0x9f, 0xee, 0xbd, 0xcd, 0x33, 0x22, 0x3e, 0xe6, 0x45, 0x50, 0xbd, 
    0xce, 0xd4, 0x87, 0xbd, 0xd7, 0x6c, 0x19, 0x3e, 0x01, 0xf1, 0x9b, 0x3e, 
    0xcb, 0x3e, 0x88, 0x3e, 0xb8, 0xe6, 0xeb, 0xbd, 0xf1, 0xab, 0x91, 0x3e, 
    0x82, 0x97, 0x6d, 0xbe, 0xee, 0x21, 0x0e, 0x3e, 0x01, 0x5c, 0x45, 0xbe, 
    0x9f, 0xc9, 0x1c, 0x3c, 0xf8, 0xe4, 0x9e, 0x3d, 0x38, 0x01, 0x6a, 0xbe, 
    0xc2, 0x2b, 0x9a, 0xbe, 0xa0, 0x30, 0x95, 0x3d, 0x04, 0xf7, 0x87, 0xbe, 
    0x43, 0xb1, 0x32, 0x3e, 0x86, 0xef, 0x33, 0xbe, 0x6b, 0x71, 0x80, 0x3e, 
    0xcf, 0x95, 0x9d, 0xbe, 0x03, 0x1e, 0x3c, 0xbe, 0x9f, 0x4b, 0x60, 0xbe, 
    0x29, 0xca, 0xf4, 0x3d, 0xc3, 0xb9, 0xb4, 0xbe, 0x3e, 0x18, 0xa4, 0xbe, 
    0x56, 0xb6, 0x86, 0xbe, 0x3d, 0xa1, 0x83, 0xbe, 0xca, 0x0d, 0xcd, 0x3d, 
    0xe1, 0x45, 0x61, 0x3e, 0x41, 0xb8, 0xeb, 0x3d, 0xd0, 0x8e, 0xb7, 0xbd, 
    0xd4, 0xf3, 0x4a, 0xbe, 0x78, 0x35, 0xac, 0x3c, 0x16, 0xd1, 0x22, 0x3d, 
    0x45, 0x71, 0xa3, 0x3e, 0x5c, 0x18, 0x9c, 0xbe, 0x73, 0xf0, 0x7d, 0xbe, 
    0xf9, 0x68, 0x1e, 0xbb, 0x89, 0xc0, 0x86, 0x3e, 0xa8, 0xe2, 0xcd, 0xbe, 
    0xbc, 0x78, 0x17, 0xbf, 0x42, 0x07, 0xf4, 0x3d, 0xa7, 0x05, 0x14, 0xbf, 
    0x4f, 0x04, 0x1b, 0xbf, 0x16, 0xa3, 0xdf, 0xbe, 0x32, 0x8f, 0x70, 0x3e, 
    0x14, 0xcf, 0x80, 0xbe, 0x8f, 0x77, 0xd4, 0xbe, 0x49, 0x60, 0x9b, 0x3e, 
    0x0e, 0x31, 0xa3, 0xbe, 0xf0, 0xa6, 0x08, 0xbf, 0x1b, 0xda, 0x85, 0xbe, 
    0xc7, 0xd6, 0x0b, 0x3e, 0xdf, 0x15, 0xca, 0xbe, 0x56, 0x33, 0x8c, 0xbe, 
    0x9e, 0x2c, 0x52, 0x39, 0x38, 0x52, 0x12, 0xbe, 0x6e, 0xc9, 0x26, 0xbc, 
    0x80, 0x7c, 0xd4, 0x3d, 0xa9, 0xfb, 0x78, 0x3e, 0x5c, 0x7c, 0x39, 0xbe, 
    0xb1, 0xc8, 0x8f, 0xbd, 0x7a, 0xae, 0x11, 0x3e, 0x84, 0x35, 0x68, 0xbd, 
    0x0d, 0xe5, 0xeb, 0xbd, 0x44, 0xce, 0x66, 0xbe, 0x14, 0xf7, 0x99, 0xbe, 
    0x0c, 0xbc, 0x19, 0x3e, 0xda, 0x5d, 0xb8, 0xbd, 0xac, 0x46, 0x4c, 0xbd, 
    0xec, 0x2f, 0xe7, 0x3e, 0x9f, 0xd1, 0x88, 0x3e, 0x08, 0x15, 0xbe, 0xbd, 
    0xc3, 0x85, 0x99, 0x3e, 0x73, 0x57, 0x57, 0xbe, 0x7d, 0xa6, 0xef, 0xbe, 
    0x80, 0x95, 0x9a, 0x3c, 0xd3, 0xbd, 0x20, 0xbe, 0xbc, 0xb9, 0xe5, 0xbe, 
    0xd2, 0x70, 0xb9, 0xbe, 0xb3, 0xfa, 0x92, 0xbe, 0x66, 0xc3, 0xa9, 0x3e, 
    0x56, 0x7d, 0xad, 0xbd, 0xf2, 0x89, 0x9b, 0xbc, 0xdb, 0xbb, 0xc0, 0xbe, 
    0x17, 0x63, 0xa1, 0x3d, 0xd8, 0xa9, 0xe6, 0xbd, 0x90, 0xf4, 0x8d, 0xbd, 
    0x45, 0xc4, 0x35, 0xbd, 0x2d, 0xfd, 0xa6, 0xbb, 0xc8, 0x5d, 0xb1, 0xbb, 
    0xc0, 0xe6, 0x86, 0xbc, 0x38, 0x22, 0xb8, 0x3e, 0x13, 0xb7, 0x84, 0x3d, 
    0x06, 0xa5, 0x5e, 0xbe, 0xac, 0x58, 0x91, 0xbe, 0xb7, 0x57, 0x92, 0x3d, 
    0xf6, 0x7b, 0x0c, 0x3e, 0x59, 0xb3, 0xeb, 0x3d, 0x47, 0xaa, 0x6a, 0x3c, 
    0xfe, 0xe5, 0x60, 0xbe, 0x96, 0x24, 0xb9, 0xbe, 0x01, 0x56, 0x91, 0x3e, 
    0x88, 0xa7, 0xdb, 0x3c, 0x30, 0x82, 0x42, 0xbc, 0xea, 0xe9, 0x14, 0x3e, 
    0x6a, 0x6b, 0x06, 0x3e, 0x52, 0x52, 0x5c, 0xbe, 0xc3, 0x55, 0x9e, 0x3e, 
    0xbd, 0x90, 0xd7, 0xbe, 0xae, 0x8e, 0x40, 0xbd, 0x6b, 0x02, 0x65, 0xbe, 
    0x84, 0xf9, 0xde, 0xbd, 0x9f, 0xe9, 0x8c, 0xbd, 0xbe, 0xe4, 0xaa, 0x3e, 
    0x7b, 0x83, 0xc5, 0xbe, 0x1e, 0x8f, 0xe1, 0xbe, 0xe6, 0x57, 0xd2, 0x3d, 
    0x0d, 0xe2, 0xd1, 0xbe, 0x04, 0x79, 0x34, 0xbe, 0xbe, 0x84, 0x41, 0x3e, 
    0x8d, 0xbe, 0x76, 0xbe, 0xad, 0x2a, 0x82, 0xbe, 0x3f, 0xb9, 0xa7, 0xbe, 
    0x79, 0xbe, 0x89, 0x3c, 0x08, 0x2f, 0xb5, 0xbd, 0x9d, 0xe5, 0xbd, 0xbe, 
    0xd6, 0x6b, 0x5c, 0xbe, 0x6e, 0x06, 0xb5, 0xbe, 0xda, 0x41, 0x9e, 0x3e, 
    0x1d, 0x92, 0xb2, 0x3d, 0xb5, 0x78, 0x81, 0x3c, 0x9a, 0xff, 0x28, 0xbe, 
    0x21, 0x08, 0x58, 0x3e, 0x7b, 0xcb, 0x10, 0xbd, 0x96, 0xc1, 0x78, 0x3e, 
    0x7e, 0x07, 0x25, 0x3d, 0x10, 0x15, 0x7f, 0xbe, 0x4f, 0x8b, 0x82, 0xbd, 
    0xec, 0x90, 0x11, 0x3e, 0x2c, 0x3c, 0xdb, 0xbe, 0xcf, 0xb0, 0xbc, 0xbc, 
    0xaf, 0x20, 0xf8, 0x3e, 0x99, 0x14, 0x35, 0x3e, 0xcb, 0x87, 0x2a, 0xbd, 
    0xee, 0xe3, 0x30, 0xbd, 0x64, 0xeb, 0xc2, 0x3c, 0x83, 0x38, 0x1e, 0xbf, 
    0x7b, 0x0a, 0x05, 0x3f, 0x7c, 0x92, 0x17, 0x3e, 0x0f, 0x1f, 0x28, 0x3e, 
    0x5e, 0xa3, 0x97, 0xbe, 0xb9, 0x9a, 0xdd, 0x3e, 0x14, 0x86, 0xf6, 0x3e, 
    0x37, 0x31, 0x88, 0xbe, 0x37, 0x10, 0x45, 0xbe, 0x19, 0x02, 0x35, 0xbe, 
    0x04, 0xb8, 0xb1, 0xbd, 0xe6, 0x16, 0x5a, 0x3d, 0x2e, 0x71, 0x6e, 0xbb, 
    0x6e, 0x91, 0xb5, 0x3d, 0x93, 0x55, 0xd6, 0xbe, 0x94, 0xe4, 0x28, 0x3c, 
    0xbf, 0xa3, 0x90, 0xbe, 0xdf, 0x29, 0x61, 0xbe, 0x13, 0xdc, 0xc7, 0x3c, 
    0xce, 0x52, 0xa5, 0xbe, 0x5f, 0x34, 0x55, 0x3e, 0x41, 0xda, 0x22, 0x3e, 
    0x6c, 0x86, 0xb6, 0x3d, 0x2a, 0xf4, 0x66, 0x3e, 0x5b, 0x3d, 0x3d, 0xbe, 
    0x2e, 0xc7, 0xc3, 0xbd, 0xb9, 0x30, 0x8c, 0xbe, 0x1f, 0x27, 0xac, 0xbb, 
    0xbf, 0x3b, 0x96, 0xbb, 0xaf, 0x80, 0x17, 0xbe, 0xe1, 0x24, 0xbd, 0xbd, 
    0xc7, 0x4f, 0x77, 0x3e, 0xaf, 0x24, 0xee, 0xbe, 0x49, 0x5b, 0x8a, 0x3e, 
    0xbb, 0xc0, 0xce, 0x3d, 0x88, 0x54, 0x3e, 0x3e, 0x70, 0x9b, 0xe6, 0x3d, 
    0xf9, 0x1a, 0x31, 0x3e, 0xb4, 0xca, 0xb3, 0xbd, 0x10, 0x41, 0x04, 0x3e, 
    0x8b, 0x32, 0x8b, 0xbe, 0xe9, 0xd5, 0x16, 0xbe, 0xe1, 0x64, 0x5e, 0xbe, 
    0x23, 0x5e, 0x86, 0x3c, 0xfc, 0x1c, 0xbb, 0xbe, 0xfc, 0x31, 0xd3, 0xbe, 
    0x75, 0x54, 0xba, 0xbe, 0x83, 0x9d, 0x61, 0x3e, 0x38, 0xe1, 0x29, 0x3e, 
    0xa1, 0x7f, 0x75, 0x3b, 0xda, 0x73, 0x3b, 0xbe, 0xde, 0xfb, 0x8c, 0xbe, 
    0x7d, 0x65, 0xb7, 0xbd, 0xbf, 0xe8, 0x0f, 0x3e, 0xf0, 0xcf, 0x3e, 0x3d, 
    0x3a, 0xf6, 0xa0, 0xbe, 0xe9, 0xbf, 0x8d, 0xbe, 0x6a, 0xd4, 0xa9, 0x3d, 
    0x53, 0xa7, 0x23, 0xbe, 0x6f, 0x5b, 0x58, 0x3e, 0x63, 0x47, 0x50, 0x3e, 
    0xa9, 0xb8, 0x4d, 0x3e, 0xf4, 0xc4, 0xd8, 0x3e, 0x0e, 0x6c, 0x0d, 0xbe, 
    0x04, 0x0d, 0xa4, 0xbe, 0xa2, 0x2c, 0xc3, 0xbe, 0x72, 0xfc, 0xd6, 0x3d, 
    0x09, 0xa6, 0x9c, 0x3e, 0xad, 0x48, 0x58, 0xbd, 0x21, 0x5b, 0x58, 0xbd, 
    0x8b, 0x7b, 0x2d, 0xbe, 0xcf, 0x39, 0x80, 0x3e, 0x11, 0x4c, 0x22, 0xbe, 
    0xd1, 0x09, 0xaa, 0x3d, 0xf5, 0xd8, 0x29, 0xbe, 0xc0, 0xd0, 0x31, 0x3e, 
    0x38, 0xee, 0x8e, 0xbe, 0xac, 0xb9, 0x6e, 0xbe, 0x48, 0xef, 0x29, 0xbe, 
    0x4d, 0x16, 0xf6, 0x3d, 0x5f, 0x4d, 0x6b, 0xbe, 0x2c, 0xe1, 0xb7, 0xbd, 
    0xc1, 0x9f, 0x9c, 0xbd, 0x58, 0xaf, 0x2e, 0x3e, 0xb1, 0x60, 0x3f, 0xbe, 
    0xc8, 0x6d, 0x86, 0x3e, 0x95, 0x34, 0x13, 0xbe, 0xc5, 0x96, 0xc3, 0xbd, 
    0xb9, 0x78, 0x7d, 0x3e, 0xc6, 0x26, 0x87, 0x3e, 0x9d, 0xe0, 0x5d, 0x3d, 
    0x48, 0x9c, 0x52, 0xbe, 0xec, 0xdf, 0x00, 0xbe, 0x48, 0x1b, 0x89, 0x3c, 
    0xdd, 0xa7, 0xd7, 0xbd, 0x93, 0xf7, 0x0f, 0x3c, 0x52, 0xf2, 0xcd, 0xbe, 
    0xd8, 0xaa, 0xe4, 0xbe, 0x87, 0x3f, 0x34, 0xbe, 0x5d, 0xd7, 0x9d, 0x3d, 
    0x9b, 0xb6, 0x87, 0x3c, 0x20, 0xf1, 0xca, 0xbc, 0x7c, 0x31, 0x05, 0x3e, 
    0x54, 0xda, 0x5a, 0xbe, 0xd2, 0xd1, 0xc8, 0x3e, 0xa9, 0x69, 0x33, 0x3e, 
    0xe3, 0x35, 0x49, 0xbe, 0x10, 0x6a, 0x72, 0xbe, 0x50, 0x7a, 0x51, 0x3e, 
    0x43, 0xf6, 0xee, 0xbe, 0x29, 0x57, 0x82, 0x3b, 0x2b, 0x92, 0x71, 0xbe, 
    0xa3, 0xc2, 0x97, 0xbe, 0xf9, 0xe8, 0xd5, 0xbd, 0xc0, 0x08, 0x33, 0xbc, 
    0x47, 0xf0, 0x1b, 0xbf, 0x59, 0x6a, 0x0b, 0xbe, 0x91, 0xda, 0x9b, 0x3e, 
    0x51, 0x89, 0x94, 0x3e, 0x6b, 0x9d, 0x94, 0x3d, 0x7d, 0x88, 0x70, 0x3d, 
    0xe7, 0x6b, 0x58, 0x3e, 0x0b, 0x47, 0x1d, 0x3e, 0x58, 0xcb, 0x31, 0x3e, 
    0xff, 0xef, 0xa2, 0x3e, 0x99, 0xd1, 0x5a, 0x3e, 0x79, 0x35, 0xc3, 0x3d, 
    0x1e, 0x1f, 0x36, 0xbb, 0x38, 0x09, 0x7f, 0x3e, 0x5a, 0x74, 0xd5, 0xbd, 
    0x8c, 0xd7, 0xb3, 0xbe, 0x57, 0x51, 0x0b, 0x3d, 0x04, 0x96, 0x84, 0x3d, 
    0xb0, 0x6f, 0x15, 0x3f, 0x95, 0xdb, 0x40, 0xbe, 0x92, 0x15, 0x86, 0xbc, 
    0x30, 0x54, 0xc5, 0x3d, 0x3f, 0x4e, 0xdd, 0x3d, 0x82, 0x8a, 0xa7, 0x3e, 
    0x5a, 0x37, 0x1a, 0xbe, 0x0b, 0x69, 0x04, 0x3e, 0x1c, 0xcd, 0xb1, 0x3d, 
    0x2e, 0xb9, 0x6a, 0xbc, 0x61, 0x34, 0x9f, 0x3d, 0x8f, 0x65, 0x4f, 0x3e, 
    0x24, 0x20, 0x69, 0xbd, 0xaa, 0x46, 0x03, 0x3e, 0x32, 0x95, 0xc4, 0xbe, 
    0x94, 0x19, 0xdd, 0xbe, 0xfb, 0xec, 0x74, 0xbe, 0x4f, 0x9f, 0xdd, 0xbe, 
    0x51, 0x48, 0x28, 0xbf, 0x42, 0x8d, 0xa3, 0xbc, 0x10, 0x9c, 0x0b, 0x3e, 
    0x27, 0x63, 0x98, 0x3e, 0xf8, 0xac, 0xf2, 0x3d, 0xac, 0x1e, 0xe8, 0xbb, 
    0x20, 0x5b, 0xfa, 0x3b, 0x9d, 0x7d, 0x70, 0xbe, 0x27, 0xe5, 0x42, 0x3d, 
    0x35, 0x12, 0x7d, 0x3e, 0x7f, 0x72, 0x4b, 0xbc, 0x7b, 0xe5, 0x3c, 0x3e, 
    0xc8, 0x12, 0x37, 0x3e, 0xc6, 0x68, 0x94, 0x3e, 0xac, 0x44, 0x1d, 0xbe, 
    0x2a, 0x61, 0xa6, 0x3e, 0x30, 0x0f, 0xcb, 0xbe, 0x0e, 0x3f, 0xe9, 0xbc, 
    0x9c, 0xbd, 0xc6, 0x3e, 0x25, 0x44, 0x7a, 0xbd, 0x2b, 0xd5, 0xbb, 0x3e, 
    0x9b, 0x1d, 0xf4, 0xbd, 0x3d, 0xf3, 0x89, 0x3e, 0xa3, 0x5f, 0x48, 0xbe, 
    0x01, 0x57, 0x75, 0xbe, 0xeb, 0xaa, 0x9c, 0x3e, 0xd3, 0x0e, 0x7e, 0x3d, 
    0xd4, 0xd4, 0x5e, 0x3e, 0x85, 0x29, 0xaa, 0xbe, 0x47, 0xe1, 0x63, 0xbd, 
    0xa8, 0x4d, 0x23, 0xbe, 0x2a, 0xe0, 0xb7, 0x3e, 0x1f, 0x64, 0x64, 0xbe, 
    0x45, 0xdf, 0x44, 0xbd, 0x8d, 0xa0, 0x08, 0xbf, 0xd9, 0xef, 0x08, 0xbc, 
    0x36, 0xa4, 0xeb, 0xbe, 0x1e, 0x69, 0xde, 0x3d, 0x56, 0x49, 0x8f, 0x3e, 
    0xde, 0xfe, 0xff, 0xff, 0x04, 0x00, 0x00, 0x00, 0x40, 0x00, 0x00, 0x00, 
    0xe9, 0x65, 0x88, 0xbc, 0x58, 0x53, 0x77, 0x3d, 0x8a, 0x90, 0x36, 0xbe, 
    0xb9, 0x63, 0xad, 0xbd, 0x32, 0xca, 0x2e, 0x3e, 0xe9, 0x17, 0x40, 0x3e, 
    0x8c, 0xad, 0x6e, 0x3e, 0xf3, 0xd3, 0xe1, 0x3c, 0xaa, 0x38, 0xa7, 0x3e, 
    0xee, 0x75, 0x10, 0x3e, 0x4c, 0xfd, 0x44, 0x3e, 0x29, 0xc9, 0xea, 0x3d, 
    0x95, 0xc0, 0x16, 0x3d, 0xee, 0xc2, 0x31, 0x3e, 0x01, 0x47, 0x5e, 0x3e, 
    0x85, 0x83, 0x2c, 0x3e, 0x2a, 0xff, 0xff, 0xff, 0x04, 0x00, 0x00, 0x00, 
    0x08, 0x00, 0x00, 0x00, 0x62, 0x87, 0x94, 0xbd, 0xa0, 0x87, 0x94, 0x3d, 
    0x3e, 0xff, 0xff, 0xff, 0x04, 0x00, 0x00, 0x00, 0x20, 0x00, 0x00, 0x00, 
    0x8c, 0x04, 0xe7, 0x3d, 0x66, 0x7a, 0x71, 0x3e, 0x91, 0xa9, 0xb6, 0x3d, 
    0x5b, 0xe8, 0x70, 0x3d, 0x60, 0x44, 0xb8, 0x3d, 0x7b, 0xe5, 0x03, 0x3e, 
    0x05, 0xdb, 0x02, 0x3e, 0xb4, 0xe1, 0xa3, 0x3d, 0x5c, 0xfa, 0xff, 0xff, 
    0x60, 0xfa, 0xff, 0xff, 0x0f, 0x00, 0x00, 0x00, 0x4d, 0x4c, 0x49, 0x52, 
    0x20, 0x43, 0x6f, 0x6e, 0x76, 0x65, 0x72, 0x74, 0x65, 0x64, 0x2e, 0x00, 
    0x01, 0x00, 0x00, 0x00, 0x14, 0x00, 0x00, 0x00, 0x00, 0x00, 0x0e, 0x00, 
    0x18, 0x00, 0x14, 0x00, 0x10, 0x00, 0x0c, 0x00, 0x08, 0x00, 0x04, 0x00, 
    0x0e, 0x00, 0x00, 0x00, 0x14, 0x00, 0x00, 0x00, 0x1c, 0x00, 0x00, 0x00, 
    0x24, 0x01, 0x00, 0x00, 0x28, 0x01, 0x00, 0x00, 0x2c, 0x01, 0x00, 0x00, 
    0x04, 0x00, 0x00, 0x00, 0x6d, 0x61, 0x69, 0x6e, 0x00, 0x00, 0x00, 0x00, 
    0x04, 0x00, 0x00, 0x00, 0xcc, 0x00, 0x00, 0x00, 0x84, 0x00, 0x00, 0x00, 
    0x50, 0x00, 0x00, 0x00, 0x14, 0x00, 0x00, 0x00, 0x00, 0x00, 0x0e, 0x00, 
    0x1a, 0x00, 0x14, 0x00, 0x10, 0x00, 0x0c, 0x00, 0x0b, 0x00, 0x04, 0x00, 
    0x0e, 0x00, 0x00, 0x00, 0x1c, 0x00, 0x00, 0x00, 0x00, 0x00, 0x00, 0x09, 
    0x1c, 0x00, 0x00, 0x00, 0x20, 0x00, 0x00, 0x00, 0x01, 0x00, 0x00, 0x00, 
    0x00, 0x00, 0x06, 0x00, 0x08, 0x00, 0x04, 0x00, 0x06, 0x00, 0x00, 0x00, 
    0x00, 0x00, 0x80, 0x3f, 0x01, 0x00, 0x00, 0x00, 0x0a, 0x00, 0x00, 0x00, 
    0x01, 0x00, 0x00, 0x00, 0x09, 0x00, 0x00, 0x00, 0x9a, 0xff, 0xff, 0xff, 
    0x10, 0x00, 0x00, 0x00, 0x00, 0x00, 0x00, 0x08, 0x0c, 0x00, 0x00, 0x00, 
    0x10, 0x00, 0x00, 0x00, 0x24, 0xfb, 0xff, 0xff, 0x01, 0x00, 0x00, 0x00, 
    0x09, 0x00, 0x00, 0x00, 0x03, 0x00, 0x00, 0x00, 0x08, 0x00, 0x00, 0x00, 
    0x06, 0x00, 0x00, 0x00, 0x02, 0x00, 0x00, 0x00, 0xca, 0xff, 0xff, 0xff, 
    0x10, 0x00, 0x00, 0x00, 0x00, 0x00, 0x00, 0x08, 0x10, 0x00, 0x00, 0x00, 
    0x14, 0x00, 0x00, 0x00, 0xba, 0xff, 0xff, 0xff, 0x00, 0x00, 0x00, 0x01, 
    0x01, 0x00, 0x00, 0x00, 0x08, 0x00, 0x00, 0x00, 0x03, 0x00, 0x00, 0x00, 
    0x07, 0x00, 0x00, 0x00, 0x05, 0x00, 0x00, 0x00, 0x01, 0x00, 0x00, 0x00, 
    0x00, 0x00, 0x0e, 0x00, 0x16, 0x00, 0x00, 0x00, 0x10, 0x00, 0x0c, 0x00, 
    0x0b, 0x00, 0x04, 0x00, 0x0e, 0x00, 0x00, 0x00, 0x18, 0x00, 0x00, 0x00, 
    0x00, 0x00, 0x00, 0x08, 0x18, 0x00, 0x00, 0x00, 0x1c, 0x00, 0x00, 0x00, 
    0x00, 0x00, 0x06, 0x00, 0x08, 0x00, 0x07, 0x00, 0x06, 0x00, 0x00, 0x00, 
    0x00, 0x00, 0x00, 0x01, 0x01, 0x00, 0x00, 0x00, 0x07, 0x00, 0x00, 0x00, 
    0x03, 0x00, 0x00, 0x00, 0x00, 0x00, 0x00, 0x00, 0x04, 0x00, 0x00, 0x00, 
    0x03, 0x00, 0x00, 0x00, 0x01, 0x00, 0x00, 0x00, 0x0a, 0x00, 0x00, 0x00, 
    0x01, 0x00, 0x00, 0x00, 0x00, 0x00, 0x00, 0x00, 0x0b, 0x00, 0x00, 0x00, 
    0x04, 0x04, 0x00, 0x00, 0x94, 0x03, 0x00, 0x00, 0x24, 0x03, 0x00, 0x00, 
    0xd0, 0x02, 0x00, 0x00, 0x88, 0x02, 0x00, 0x00, 0x3c, 0x02, 0x00, 0x00, 
    0xf0, 0x01, 0x00, 0x00, 0x68, 0x01, 0x00, 0x00, 0xd8, 0x00, 0x00, 0x00, 
    0x60, 0x00, 0x00, 0x00, 0x04, 0x00, 0x00, 0x00, 0x3e, 0xfc, 0xff, 0xff, 
    0x00, 0x00, 0x00, 0x01, 0x14, 0x00, 0x00, 0x00, 0x1c, 0x00, 0x00, 0x00, 
    0x1c, 0x00, 0x00, 0x00, 0x0b, 0x00, 0x00, 0x00, 0x34, 0x00, 0x00, 0x00, 
    0x02, 0x00, 0x00, 0x00, 0xff, 0xff, 0xff, 0xff, 0x02, 0x00, 0x00, 0x00, 
    0x28, 0xfc, 0xff, 0xff, 0x19, 0x00, 0x00, 0x00, 0x53, 0x74, 0x61, 0x74, 
    0x65, 0x66, 0x75, 0x6c, 0x50, 0x61, 0x72, 0x74, 0x69, 0x74, 0x69, 0x6f, 
    0x6e, 0x65, 0x64, 0x43, 0x61, 0x6c, 0x6c, 0x3a, 0x30, 0x00, 0x00, 0x00, 
    0x02, 0x00, 0x00, 0x00, 0x01, 0x00, 0x00, 0x00, 0x02, 0x00, 0x00, 0x00, 
    0x96, 0xfc, 0xff, 0xff, 0x00, 0x00, 0x00, 0x01, 0x14, 0x00, 0x00, 0x00, 
    0x1c, 0x00, 0x00, 0x00, 0x1c, 0x00, 0x00, 0x00, 0x0a, 0x00, 0x00, 0x00, 
    0x50, 0x00, 0x00, 0x00, 0x02, 0x00, 0x00, 0x00, 0xff, 0xff, 0xff, 0xff, 
    0x02, 0x00, 0x00, 0x00, 0x80, 0xfc, 0xff, 0xff, 0x34, 0x00, 0x00, 0x00, 
    0x73, 0x65, 0x71, 0x75, 0x65, 0x6e, 0x74, 0x69, 0x61, 0x6c, 0x2f, 0x64, 
    0x65, 0x6e, 0x73, 0x65, 0x5f, 0x32, 0x2f, 0x4d, 0x61, 0x74, 0x4d, 0x75, 
    0x6c, 0x3b, 0x73, 0x65, 0x71, 0x75, 0x65, 0x6e, 0x74, 0x69, 0x61, 0x6c, 
    0x2f, 0x64, 0x65, 0x6e, 0x73, 0x65, 0x5f, 0x32, 0x2f, 0x42, 0x69, 0x61, 
    0x73, 0x41, 0x64, 0x64, 0x00, 0x00, 0x00, 0x00, 0x02, 0x00, 0x00, 0x00, 
    0x01, 0x00, 0x00, 0x00, 0x02, 0x00, 0x00, 0x00, 0x0a, 0xfd, 0xff, 0xff, 
    0x00, 0x00, 0x00, 0x01, 0x14, 0x00, 0x00, 0x00, 0x1c, 0x00, 0x00, 0x00, 
    0x1c, 0x00, 0x00, 0x00, 0x09, 0x00, 0x00, 0x00, 0x68, 0x00, 0x00, 0x00, 
    0x02, 0x00, 0x00, 0x00, 0xff, 0xff, 0xff, 0xff, 0x08, 0x00, 0x00, 0x00, 
    0xf4, 0xfc, 0xff, 0xff, 0x4c, 0x00, 0x00, 0x00, 0x73, 0x65, 0x71, 0x75, 
    0x65, 0x6e, 0x74, 0x69, 0x61, 0x6c, 0x2f, 0x64, 0x65, 0x6e, 0x73, 0x65, 
    0x5f, 0x31, 0x2f, 0x4d, 0x61, 0x74, 0x4d, 0x75, 0x6c, 0x3b, 0x73, 0x65, 
    0x71, 0x75, 0x65, 0x6e, 0x74, 0x69, 0x61, 0x6c, 0x2f, 0x64, 0x65, 0x6e, 
    0x73, 0x65, 0x5f, 0x31, 0x2f, 0x52, 0x65, 0x6c, 0x75, 0x3b, 0x73, 0x65, 
    0x71, 0x75, 0x65, 0x6e, 0x74, 0x69, 0x61, 0x6c, 0x2f, 0x64, 0x65, 0x6e, 
    0x73, 0x65, 0x5f, 0x31, 0x2f, 0x42, 0x69, 0x61, 0x73, 0x41, 0x64, 0x64, 
    0x00, 0x00, 0x00, 0x00, 0x02, 0x00, 0x00, 0x00, 0x01, 0x00, 0x00, 0x00, 
    0x08, 0x00, 0x00, 0x00, 0x96, 0xfd, 0xff, 0xff, 0x00, 0x00, 0x00, 0x01, 
    0x14, 0x00, 0x00, 0x00, 0x1c, 0x00, 0x00, 0x00, 0x1c, 0x00, 0x00, 0x00, 
    0x08, 0x00, 0x00, 0x00, 0x60, 0x00, 0x00, 0x00, 0x02, 0x00, 0x00, 0x00, 
    0xff, 0xff, 0xff, 0xff, 0x10, 0x00, 0x00, 0x00, 0x80, 0xfd, 0xff, 0xff, 
    0x46, 0x00, 0x00, 0x00, 0x73, 0x65, 0x71, 0x75, 0x65, 0x6e, 0x74, 0x69, 
    0x61, 0x6c, 0x2f, 0x64, 0x65, 0x6e, 0x73, 0x65, 0x2f, 0x4d, 0x61, 0x74, 
    0x4d, 0x75, 0x6c, 0x3b, 0x73, 0x65, 0x71, 0x75, 0x65, 0x6e, 0x74, 0x69, 
    0x61, 0x6c, 0x2f, 0x64, 0x65, 0x6e, 0x73, 0x65, 0x2f, 0x52, 0x65, 0x6c, 
    0x75, 0x3b, 0x73, 0x65, 0x71, 0x75, 0x65, 0x6e, 0x74, 0x69, 0x61, 0x6c, 
    0x2f, 0x64, 0x65, 0x6e, 0x73, 0x65, 0x2f, 0x42, 0x69, 0x61, 0x73, 0x41, 
    0x64, 0x64, 0x00, 0x00, 0x02, 0x00, 0x00, 0x00, 0x01, 0x00, 0x00, 0x00, 
    0x10, 0x00, 0x00, 0x00, 0x86, 0xfe, 0xff, 0xff, 0x00, 0x00, 0x00, 0x01, 
    0x10, 0x00, 0x00, 0x00, 0x10, 0x00, 0x00, 0x00, 0x07, 0x00, 0x00, 0x00, 
    0x28, 0x00, 0x00, 0x00, 0xf4, 0xfd, 0xff, 0xff, 0x19, 0x00, 0x00, 0x00, 
    0x73, 0x65, 0x71, 0x75, 0x65, 0x6e, 0x74, 0x69, 0x61, 0x6c, 0x2f, 0x64, 
    0x65, 0x6e, 0x73, 0x65, 0x5f, 0x32, 0x2f, 0x4d, 0x61, 0x74, 0x4d, 0x75, 
    0x6c, 0x00, 0x00, 0x00, 0x02, 0x00, 0x00, 0x00, 0x02, 0x00, 0x00, 0x00, 
    0x08, 0x00, 0x00, 0x00, 0xce, 0xfe, 0xff, 0xff, 0x00, 0x00, 0x00, 0x01, 
    0x10, 0x00, 0x00, 0x00, 0x10, 0x00, 0x00, 0x00, 0x06, 0x00, 0x00, 0x00, 
    0x28, 0x00, 0x00, 0x00, 0x3c, 0xfe, 0xff, 0xff, 0x19, 0x00, 0x00, 0x00, 
    0x73, 0x65, 0x71, 0x75, 0x65, 0x6e, 0x74, 0x69, 0x61, 0x6c, 0x2f, 0x64, 
    0x65, 0x6e, 0x73, 0x65, 0x5f, 0x31, 0x2f, 0x4d, 0x61, 0x74, 0x4d, 0x75, 
    0x6c, 0x00, 0x00, 0x00, 0x02, 0x00, 0x00, 0x00, 0x08, 0x00, 0x00, 0x00, 
    0x10, 0x00, 0x00, 0x00, 0x16, 0xff, 0xff, 0xff, 0x00, 0x00, 0x00, 0x01, 
    0x10, 0x00, 0x00, 0x00, 0x10, 0x00, 0x00, 0x00, 0x05, 0x00, 0x00, 0x00, 
    0x24, 0x00, 0x00, 0x00, 0x84, 0xfe, 0xff, 0xff, 0x17, 0x00, 0x00, 0x00, 
    0x73, 0x65, 0x71, 0x75, 0x65, 0x6e, 0x74, 0x69, 0x61, 0x6c, 0x2f, 0x64, 
    0x65, 0x6e, 0x73, 0x65, 0x2f, 0x4d, 0x61, 0x74, 0x4d, 0x75, 0x6c, 0x00, 
    0x02, 0x00, 0x00, 0x00, 0x10, 0x00, 0x00, 0x00, 0x26, 0x00, 0x00, 0x00, 
    0x5a, 0xff, 0xff, 0xff, 0x00, 0x00, 0x00, 0x01, 0x10, 0x00, 0x00, 0x00, 
    0x10, 0x00, 0x00, 0x00, 0x04, 0x00, 0x00, 0x00, 0x34, 0x00, 0x00, 0x00, 
    0xc8, 0xfe, 0xff, 0xff, 0x27, 0x00, 0x00, 0x00, 0x73, 0x65, 0x71, 0x75, 
    0x65, 0x6e, 0x74, 0x69, 0x61, 0x6c, 0x2f, 0x64, 0x65, 0x6e, 0x73, 0x65, 
    0x2f, 0x42, 0x69, 0x61, 0x73, 0x41, 0x64, 0x64, 0x2f, 0x52, 0x65, 0x61, 
    0x64, 0x56, 0x61, 0x72, 0x69, 0x61, 0x62, 0x6c, 0x65, 0x4f, 0x70, 0x00, 
    0x01, 0x00, 0x00, 0x00, 0x10, 0x00, 0x00, 0x00, 0xaa, 0xff, 0xff, 0xff, 
    0x00, 0x00, 0x00, 0x01, 0x10, 0x00, 0x00, 0x00, 0x10, 0x00, 0x00, 0x00, 
    0x03, 0x00, 0x00, 0x00, 0x38, 0x00, 0x00, 0x00, 0x18, 0xff, 0xff, 0xff, 
    0x29, 0x00, 0x00, 0x00, 0x73, 0x65, 0x71, 0x75, 0x65, 0x6e, 0x74, 0x69, 
    0x61, 0x6c, 0x2f, 0x64, 0x65, 0x6e, 0x73, 0x65, 0x5f, 0x32, 0x2f, 0x42, 
    0x69, 0x61, 0x73, 0x41, 0x64, 0x64, 0x2f, 0x52, 0x65, 0x61, 0x64, 0x56, 
    0x61, 0x72, 0x69, 0x61, 0x62, 0x6c, 0x65, 0x4f, 0x70, 0x00, 0x00, 0x00, 
    0x01, 0x00, 0x00, 0x00, 0x02, 0x00, 0x00, 0x00, 0x00, 0x00, 0x16, 0x00, 
    0x18, 0x00, 0x14, 0x00, 0x00, 0x00, 0x10, 0x00, 0x0c, 0x00, 0x08, 0x00, 
    0x00, 0x00, 0x00, 0x00, 0x00, 0x00, 0x07, 0x00, 0x16, 0x00, 0x00, 0x00, 
    0x00, 0x00, 0x00, 0x01, 0x10, 0x00, 0x00, 0x00, 0x10, 0x00, 0x00, 0x00, 
    0x02, 0x00, 0x00, 0x00, 0x38, 0x00, 0x00, 0x00, 0x84, 0xff, 0xff, 0xff, 
    0x29, 0x00, 0x00, 0x00, 0x73, 0x65, 0x71, 0x75, 0x65, 0x6e, 0x74, 0x69, 
    0x61, 0x6c, 0x2f, 0x64, 0x65, 0x6e, 0x73, 0x65, 0x5f, 0x31, 0x2f, 0x42, 
    0x69, 0x61, 0x73, 0x41, 0x64, 0x64, 0x2f, 0x52, 0x65, 0x61, 0x64, 0x56, 
    0x61, 0x72, 0x69, 0x61, 0x62, 0x6c, 0x65, 0x4f, 0x70, 0x00, 0x00, 0x00, 
    0x01, 0x00, 0x00, 0x00, 0x08, 0x00, 0x00, 0x00, 0x00, 0x00, 0x16, 0x00, 
    0x1c, 0x00, 0x18, 0x00, 0x00, 0x00, 0x14, 0x00, 0x10, 0x00, 0x0c, 0x00, 
    0x00, 0x00, 0x00, 0x00, 0x08, 0x00, 0x07, 0x00, 0x16, 0x00, 0x00, 0x00, 
    0x00, 0x00, 0x00, 0x01, 0x14, 0x00, 0x00, 0x00, 0x20, 0x00, 0x00, 0x00, 
    0x20, 0x00, 0x00, 0x00, 0x01, 0x00, 0x00, 0x00, 0x38, 0x00, 0x00, 0x00, 
    0x02, 0x00, 0x00, 0x00, 0xff, 0xff, 0xff, 0xff, 0x26, 0x00, 0x00, 0x00, 
    0x04, 0x00, 0x04, 0x00, 0x04, 0x00, 0x00, 0x00, 0x19, 0x00, 0x00, 0x00, 
    0x73, 0x65, 0x72, 0x76, 0x69, 0x6e, 0x67, 0x5f, 0x64, 0x65, 0x66, 0x61, 
    0x75, 0x6c, 0x74, 0x5f, 0x69, 0x6e, 0x70, 0x75, 0x74, 0x5f, 0x31, 0x3a, 
    0x30, 0x00, 0x00, 0x00, 0x02, 0x00, 0x00, 0x00, 0x01, 0x00, 0x00, 0x00, 
    0x26, 0x00, 0x00, 0x00, 0x02, 0x00, 0x00, 0x00, 0x20, 0x00, 0x00, 0x00, 
    0x04, 0x00, 0x00, 0x00, 0xf4, 0xff, 0xff, 0xff, 0x19, 0x00, 0x00, 0x00, 
    0x00, 0x00, 0x00, 0x19, 0x0c, 0x00, 0x0c, 0x00, 0x0b, 0x00, 0x00, 0x00, 
    0x00, 0x00, 0x04, 0x00, 0x0c, 0x00, 0x00, 0x00, 0x09, 0x00, 0x00, 0x00, 
    0x00, 0x00, 0x00, 0x09
};

#endif //NETWORK_MODEL_H