#ifndef NETWORK_MODEL_H
#define NETWORK_MODEL_H

const unsigned int network_model_dim1 = 4984;

const unsigned char network_model[4984] = {
    0x20, 0x00, 0x00, 0x00, 0x54, 0x46, 0x4c, 0x33, 0x00, 0x00, 0x00, 0x00, 
    0x14, 0x00, 0x20, 0x00, 0x1c, 0x00, 0x18, 0x00, 0x14, 0x00, 0x10, 0x00, 
    0x0c, 0x00, 0x00, 0x00, 0x08, 0x00, 0x04, 0x00, 0x14, 0x00, 0x00, 0x00, 
    0x1c, 0x00, 0x00, 0x00, 0x8c, 0x00, 0x00, 0x00, 0xe4, 0x00, 0x00, 0x00, 
    0x5c, 0x0e, 0x00, 0x00, 0x6c, 0x0e, 0x00, 0x00, 0x00, 0x13, 0x00, 0x00, 
    0x03, 0x00, 0x00, 0x00, 0x01, 0x00, 0x00, 0x00, 0x10, 0x00, 0x00, 0x00, 
    0x00, 0x00, 0x0a, 0x00, 0x10, 0x00, 0x0c, 0x00, 0x08, 0x00, 0x04, 0x00, 
    0x0a, 0x00, 0x00, 0x00, 0x0c, 0x00, 0x00, 0x00, 0x1c, 0x00, 0x00, 0x00, 
    0x38, 0x00, 0x00, 0x00, 0x0f, 0x00, 0x00, 0x00, 0x73, 0x65, 0x72, 0x76, 
    0x69, 0x6e, 0x67, 0x5f, 0x64, 0x65, 0x66, 0x61, 0x75, 0x6c, 0x74, 0x00, 
    0x01, 0x00, 0x00, 0x00, 0x04, 0x00, 0x00, 0x00, 0x9c, 0xff, 0xff, 0xff, 
    0x07, 0x00, 0x00, 0x00, 0x04, 0x00, 0x00, 0x00, 0x07, 0x00, 0x00, 0x00, 
    0x64, 0x65, 0x6e, 0x73, 0x65, 0x5f, 0x31, 0x00, 0x01, 0x00, 0x00, 0x00, 
    0x04, 0x00, 0x00, 0x00, 0x8a, 0xf1, 0xff, 0xff, 0x04, 0x00, 0x00, 0x00, 
    0x07, 0x00, 0x00, 0x00, 0x69, 0x6e, 0x70, 0x75, 0x74, 0x5f, 0x31, 0x00, 
    0x02, 0x00, 0x00, 0x00, 0x34, 0x00, 0x00, 0x00, 0x04, 0x00, 0x00, 0x00, 
    0xdc, 0xff, 0xff, 0xff, 0x0a, 0x00, 0x00, 0x00, 0x04, 0x00, 0x00, 0x00, 
    0x13, 0x00, 0x00, 0x00, 0x43, 0x4f, 0x4e, 0x56, 0x45, 0x52, 0x53, 0x49, 
    0x4f, 0x4e, 0x5f, 0x4d, 0x45, 0x54, 0x41, 0x44, 0x41, 0x54, 0x41, 0x00, 
    0x08, 0x00, 0x0c, 0x00, 0x08, 0x00, 0x04, 0x00, 0x08, 0x00, 0x00, 0x00, 
    0x09, 0x00, 0x00, 0x00, 0x04, 0x00, 0x00, 0x00, 0x13, 0x00, 0x00, 0x00, 
    0x6d, 0x69, 0x6e, 0x5f, 0x72, 0x75, 0x6e, 0x74, 0x69, 0x6d, 0x65, 0x5f, 
    0x76, 0x65, 0x72, 0x73, 0x69, 0x6f, 0x6e, 0x00, 0x0b, 0x00, 0x00, 0x00, 
    0x74, 0x0d, 0x00, 0x00, 0x6c, 0x0d, 0x00, 0x00, 0x5c, 0x0b, 0x00, 0x00, 
    0x44, 0x0b, 0x00, 0x00, 0x34, 0x0a, 0x00, 0x00, 0xa4, 0x00, 0x00, 0x00, 
    0x9c, 0x00, 0x00, 0x00, 0x94, 0x00, 0x00, 0x00, 0x8c, 0x00, 0x00, 0x00, 
    0x6c, 0x00, 0x00, 0x00, 0x04, 0x00, 0x00, 0x00, 0x2a, 0xf2, 0xff, 0xff, 
    0x04, 0x00, 0x00, 0x00, 0x58, 0x00, 0x00, 0x00, 0x0c, 0x00, 0x00, 0x00, 
    0x08, 0x00, 0x0e, 0x00, 0x08, 0x00, 0x04, 0x00, 0x08, 0x00, 0x00, 0x00, 
    0x10, 0x00, 0x00, 0x00, 0x28, 0x00, 0x00, 0x00, 0x00, 0x00, 0x06, 0x00, 
    0x08, 0x00, 0x04, 0x00, 0x06, 0x00, 0x00, 0x00, 0x04, 0x00, 0x00, 0x00, 
    0x01, 0x00, 0x00, 0x00, 0xea, 0x03, 0x00, 0x00, 0x00, 0x00, 0x0a, 0x00, 
    0x10, 0x00, 0x0c, 0x00, 0x08, 0x00, 0x04, 0x00, 0x0a, 0x00, 0x00, 0x00, 
    0x02, 0x00, 0x00, 0x00, 0x02, 0x00, 0x00, 0x00, 0x04, 0x00, 0x00, 0x00, 
    0x06, 0x00, 0x00, 0x00, 0x32, 0x2e, 0x31, 0x35, 0x2e, 0x30, 0x00, 0x00, 
    0x8e, 0xf2, 0xff, 0xff, 0x04, 0x00, 0x00, 0x00, 0x10, 0x00, 0x00, 0x00, 
    0x32, 0x2e, 0x33, 0x2e, 0x30, 0x00, 0x00, 0x00, 0x00, 0x00, 0x00, 0x00, 
    0x00, 0x00, 0x00, 0x00, 0xbc, 0xee, 0xff, 0xff, 0xc0, 0xee, 0xff, 0xff, 
    0xc4, 0xee, 0xff, 0xff, 0xb6, 0xf2, 0xff, 0xff, 0x04, 0x00, 0x00, 0x00, 
    0x80, 0x09, 0x00, 0x00, 0xee, 0x08, 0xc4, 0x19, 0x16, 0xc7, 0x03, 0xbb, 
    0x08, 0x11, 0x1e, 0x0c, 0x04, 0x1d, 0xe5, 0xfb, 0xf6, 0xef, 0xd6, 0x18, 
    0x12, 0x05, 0xdc, 0xe1, 0xe8, 0xe5, 0x0c, 0xef, 0xef, 0x1b, 0x20, 0x16, 
    0xe8, 0x1b, 0xfb, 0xd1, 0xde, 0x09, 0x27, 0xdb, 0xeb, 0xe4, 0x08, 0xee, 
    0xcf, 0x14, 0xd9, 0xe9, 0x07, 0xe5, 0x26, 0x13, 0x20, 0xf3, 0xfb, 0xf9, 
    0xb8, 0x8b, 0x13, 0x26, 0x00, 0x21, 0x12, 0x13, 0xe2, 0xde, 0xec, 0xe9, 
    0x00, 0x1a, 0xda, 0x11, 0xde, 0x0c, 0x01, 0x0b, 0xfe, 0x0a, 0xcc, 0x04, 
    0x13, 0xec, 0xda, 0xd0, 0xcf, 0x03, 0x10, 0xea, 0x1d, 0x18, 0xda, 0xef, 
    0xf7, 0x18, 0xca, 0xe9, 0xe6, 0xfb, 0xee, 0xf9, 0x09, 0xfa, 0xe4, 0xf2, 
    0x25, 0x0b, 0xe4, 0x03, 0x18, 0x05, 0x04, 0x0c, 0x18, 0x0c, 0x0e, 0x03, 
    0x03, 0x22, 0x16, 0x1b, 0xeb, 0xbd, 0xf5, 0xfc, 0x14, 0xe7, 0x08, 0x2b, 
    0x04, 0x0f, 0xf6, 0xdb, 0xfa, 0xfc, 0x18, 0xd6, 0xc9, 0xc9, 0x16, 0x1d, 
    0x05, 0x07, 0xe9, 0xf0, 0x1e, 0xe7, 0xe0, 0xe6, 0xf6, 0xe0, 0xf9, 0x00, 
    0x1a, 0xae, 0xe6, 0x01, 0x0a, 0xd8, 0xcf, 0xef, 0xaf, 0xe6, 0x17, 0xdd, 
    0xfc, 0x0b, 0x10, 0xf2, 0xd1, 0xd8, 0x47, 0x26, 0x2f, 0x39, 0x2f, 0xf9, 
    0x34, 0x12, 0x26, 0x35, 0xfc, 0xb9, 0x28, 0x03, 0x18, 0x1f, 0x3f, 0xf0, 
    0x28, 0x2d, 0x0e, 0x08, 0x18, 0x1a, 0xf8, 0xee, 0x06, 0xe7, 0xec, 0x13, 
    0x06, 0x20, 0xf1, 0x17, 0x1a, 0xfb, 0x11, 0x07, 0xe8, 0xe8, 0x1d, 0x16, 
    0x02, 0xff, 0x17, 0xf5, 0x00, 0x0a, 0xff, 0xe3, 0x06, 0xf4, 0x08, 0xe4, 
    0xe8, 0x25, 0xee, 0x13, 0x04, 0x0d, 0xff, 0xe6, 0xe7, 0xf1, 0xe3, 0x19, 
    0x17, 0x14, 0xe8, 0x21, 0xf6, 0x27, 0xdf, 0x1b, 0x0c, 0x17, 0xf7, 0x03, 
    0xfc, 0x00, 0x20, 0xf7, 0x32, 0xd8, 0x08, 0xd7, 0x03, 0xe1, 0x02, 0xe5, 
    0x04, 0xe6, 0xd9, 0x18, 0xdc, 0x3a, 0xd0, 0x12, 0x20, 0xdf, 0x04, 0xe6, 
    0xe9, 0xd3, 0xd9, 0xf4, 0xea, 0xef, 0xea, 0x06, 0xf0, 0x07, 0xff, 0x1e, 
    0x06, 0x00, 0x09, 0x24, 0xec, 0xfa, 0xf5, 0xfd, 0xf0, 0x1d, 0x12, 0xf9, 
    0xeb, 0x2c, 0xf0, 0x2f, 0x14, 0x1f, 0xd3, 0x12, 0xbe, 0xec, 0x10, 0x04, 
    0xeb, 0xdf, 0x19, 0xed, 0xc9, 0xf4, 0xff, 0x0a, 0xee, 0x07, 0xf4, 0xef, 
    0xf3, 0xee, 0x19, 0x17, 0x0b, 0xfc, 0x0d, 0x0f, 0xf9, 0xf0, 0xe1, 0x3e, 
    0xf3, 0xc2, 0x00, 0x1f, 0xcd, 0x10, 0x19, 0x10, 0x0f, 0x2d, 0x1f, 0xd6, 
    0xf9, 0x14, 0x06, 0xf7, 0xc7, 0x0e, 0x10, 0x01, 0x0b, 0x04, 0x2a, 0xf9, 
    0xdf, 0xf6, 0x07, 0x1c, 0xd4, 0xf4, 0xe8, 0xfb, 0xe0, 0x10, 0xdf, 0x12, 
    0xfd, 0xfb, 0xd7, 0xb8, 0x0c, 0x14, 0x9e, 0x15, 0x18, 0xc4, 0xda, 0xef, 
    0x04, 0x0e, 0xec, 0xdb, 0xe2, 0xd7, 0xfc, 0xaf, 0xca, 0xfd, 0xe7, 0xfd, 
    0x12, 0x16, 0x17, 0xe3, 0xd5, 0xc9, 0x05, 0x98, 0xda, 0xf4, 0xd3, 0x18, 
    0x1d, 0xff, 0xda, 0xd8, 0x36, 0x37, 0x1d, 0xf5, 0xfd, 0xf1, 0xd7, 0xf4, 
    0x04, 0x36, 0xcd, 0x0f, 0x0f, 0x0e, 0xe5, 0x0b, 0xfe, 0x1f, 0x03, 0x26, 
    0x08, 0xfb, 0x09, 0x13, 0xef, 0x00, 0xff, 0x08, 0xfc, 0xed, 0x03, 0x17, 
    0xf9, 0xd8, 0x0a, 0x0c, 0xd4, 0xe7, 0x11, 0x1b, 0x1c, 0xf0, 0x0e, 0x09, 
    0xf5, 0x34, 0xf1, 0xda, 0x02, 0xd8, 0xcd, 0xed, 0x09, 0xe8, 0x3e, 0x00, 
    0x03, 0xff, 0xf7, 0x09, 0x1f, 0x04, 0x07, 0xf4, 0xea, 0x19, 0x13, 0x23, 
    0xfb, 0x0f, 0xe6, 0xe0, 0xef, 0xef, 0x0e, 0xd4, 0xe2, 0x07, 0xe0, 0xf1, 
    0x00, 0xef, 0x12, 0xf1, 0xec, 0xec, 0x0f, 0xff, 0x0a, 0x2b, 0x05, 0xe2, 
    0xdc, 0x03, 0x26, 0xd8, 0x11, 0x14, 0xfc, 0xbf, 0xe8, 0xef, 0xde, 0x16, 
    0xf4, 0xd3, 0xf0, 0xf9, 0xcd, 0xeb, 0xf8, 0x26, 0x05, 0xe2, 0x09, 0xd3, 
    0x23, 0xea, 0x01, 0xd2, 0xe4, 0xdc, 0xf1, 0x53, 0xf8, 0x0f, 0xeb, 0x0a, 
    0xf9, 0xfd, 0x25, 0xf1, 0x08, 0xef, 0xf8, 0x01, 0xff, 0xe8, 0x1e, 0xf3, 
    0xee, 0xea, 0xfd, 0xf2, 0x0f, 0x0a, 0xf3, 0x1a, 0xd7, 0x23, 0xeb, 0xf0, 
    0x11, 0x0f, 0x06, 0xe2, 0x03, 0x16, 0xf9, 0x18, 0xf4, 0x14, 0xe9, 0xff, 
    0x2c, 0x19, 0x10, 0xf8, 0xff, 0xb9, 0x06, 0xf4, 0xda, 0xfb, 0x16, 0xea, 
    0xe7, 0xe7, 0xe2, 0x07, 0x1c, 0xef, 0x05, 0xfe, 0xf6, 0x24, 0xf0, 0xdc, 
    0xee, 0x1d, 0xee, 0xeb, 0xdf, 0xd2, 0x14, 0x10, 0xee, 0xf4, 0xe1, 0xf3, 
    0x20, 0xea, 0xfe, 0xec, 0x01, 0xf7, 0x15, 0x15, 0x14, 0x13, 0x1f, 0x09, 
    0xf8, 0xe4, 0xe8, 0x08, 0xf6, 0x1d, 0xec, 0x25, 0x03, 0xf6, 0x1e, 0x18, 
    0xfc, 0xf4, 0x09, 0x02, 0x16, 0xee, 0xfc, 0x1c, 0x1c, 0x1f, 0xe7, 0xf4, 
    0x28, 0x1d, 0xeb, 0xe9, 0xee, 0xfa, 0xfc, 0x18, 0x18, 0x04, 0xfe, 0x30, 
    0xed, 0xff, 0x08, 0x16, 0x06, 0xf5, 0xf0, 0x0c, 0xf5, 0xf8, 0x04, 0x07, 
    0xec, 0xe8, 0x16, 0xf9, 0x18, 0xfe, 0x12, 0x1e, 0xfc, 0xeb, 0x17, 0x0e, 
    0xdd, 0xfc, 0xfb, 0xdd, 0x27, 0x0d, 0xee, 0x2c, 0xb1, 0x17, 0xf0, 0xff, 
    0x16, 0xf2, 0xee, 0x1a, 0xea, 0x17, 0x06, 0x0f, 0x0a, 0xf8, 0xdd, 0x21, 
    0x07, 0xfd, 0xdf, 0xb2, 0x01, 0x1f, 0x04, 0x2e, 0x14, 0x20, 0x33, 0x12, 
    0xf1, 0x27, 0x04, 0xa7, 0xd8, 0x23, 0x18, 0xf7, 0x15, 0xf7, 0xf4, 0x0a, 
    0xfe, 0x9c, 0x09, 0xce, 0x0a, 0x03, 0xdc, 0x15, 0xd0, 0xe6, 0xf7, 0xf9, 
    0xbf, 0xc2, 0xd9, 0xf0, 0xe4, 0xca, 0x0e, 0x10, 0xfb, 0x25, 0x11, 0x01, 
    0xea, 0xe2, 0x08, 0xf9, 0x01, 0xe6, 0xd2, 0x28, 0xfb, 0x0a, 0x22, 0xce, 
    0xe6, 0x01, 0xd0, 0x81, 0x22, 0xe4, 0x05, 0x09, 0xe5, 0xf2, 0x11, 0xc3, 
    0xd7, 0xf3, 0x2c, 0xff, 0x05, 0x08, 0xe8, 0x16, 0x00, 0xda, 0x2c, 0x3c, 
    0xef, 0xfc, 0xb2, 0xe0, 0x1e, 0xfa, 0x31, 0x0f, 0xf6, 0xe1, 0x1c, 0x20, 
    0xec, 0x1c, 0xd1, 0xe0, 0x0c, 0xc5, 0x19, 0xde, 0xe2, 0x09, 0xf5, 0x20, 
    0xea, 0x14, 0xdd, 0xe0, 0x0d, 0x1f, 0xd9, 0xf4, 0xd2, 0xd3, 0xed, 0x01, 
    0x0d, 0xd6, 0x06, 0x1e, 0x09, 0xf3, 0xd0, 0x15, 0xdb, 0xec, 0xe8, 0x2a, 
    0x1e, 0x0c, 0xe9, 0x00, 0xdc, 0xf8, 0x11, 0xd9, 0xff, 0x22, 0xee, 0x02, 
    0x07, 0xfa, 0x03, 0xf1, 0xf7, 0x05, 0xe4, 0xe0, 0x01, 0xf5, 0x1b, 0x11, 
    0x14, 0x08, 0x06, 0xfb, 0x0d, 0x03, 0x18, 0xfb, 0x0e, 0xe8, 0x02, 0x10, 
    0xe5, 0x23, 0xed, 0xbd, 0xf9, 0x18, 0xd0, 0x3a, 0x11, 0xeb, 0x16, 0x11, 
    0xee, 0x16, 0xe4, 0xff, 0xf9, 0xfb, 0x25, 0x09, 0x20, 0x0e, 0x07, 0xe3, 
    0x01, 0x1e, 0x07, 0x0d, 0x0a, 0xf0, 0x04, 0xec, 0x29, 0x06, 0x15, 0xdd, 
    0xe8, 0x09, 0x10, 0x00, 0xf7, 0x2b, 0xbe, 0xcf, 0xce, 0xc2, 0x06, 0xf0, 
    0xc5, 0x15, 0x02, 0xf9, 0x27, 0x22, 0x09, 0xe9, 0x03, 0x15, 0xe7, 0x1c, 
    0x16, 0x29, 0x2c, 0x06, 0x2d, 0xd3, 0xe6, 0xf9, 0x08, 0x29, 0xfd, 0x0e, 
    0x16, 0xf3, 0xda, 0xc2, 0x00, 0x02, 0xe5, 0xf8, 0xfd, 0xe4, 0x05, 0xfd, 
    0x22, 0xfb, 0xe4, 0x14, 0x1a, 0x13, 0x06, 0x14, 0x00, 0x0a, 0x06, 0x17, 
    0x0d, 0x08, 0x0e, 0xf7, 0xf4, 0xf4, 0xf1, 0x0f, 0xf3, 0x31, 0x12, 0xf6, 
    0x17, 0x0e, 0xe4, 0x18, 0xe8, 0x20, 0xe8, 0xeb, 0xe4, 0x38, 0xdb, 0xe5, 
    0xe8, 0xe4, 0xf3, 0xf1, 0x1a, 0xeb, 0xf2, 0xd5, 0xf8, 0xca, 0xf2, 0xd6, 
    0xe6, 0x1c, 0x23, 0x2d, 0xe3, 0xf7, 0x26, 0xe9, 0xf5, 0xde, 0x2a, 0xca, 
    0x0b, 0x23, 0x0d, 0xf0, 0xeb, 0x01, 0xde, 0x09, 0x01, 0x1f, 0x09, 0x42, 
    0xf0, 0x16, 0xeb, 0x02, 0xd8, 0xf4, 0x11, 0x09, 0x1e, 0x1a, 0x1e, 0xd5, 
    0xec, 0xd8, 0x11, 0x13, 0xe1, 0xd8, 0x10, 0x0c, 0x09, 0xe8, 0xf8, 0xed, 
    0x30, 0xf5, 0x04, 0x0f, 0xd8, 0xeb, 0x16, 0xfa, 0x10, 0x2a, 0x2a, 0x20, 
    0x03, 0x12, 0x22, 0xe4, 0xec, 0x1a, 0xf3, 0x13, 0x1e, 0xfe, 0xf3, 0xe7, 
    0x0b, 0x16, 0x12, 0xe6, 0xf9, 0x23, 0xec, 0x06, 0xef, 0x19, 0x00, 0xfb, 
    0xf5, 0x1d, 0xeb, 0x0d, 0x15, 0x17, 0xed, 0x07, 0x18, 0xe4, 0xfe, 0x0f, 
    0xef, 0xff, 0xdb, 0xec, 0x15, 0x20, 0x16, 0xdc, 0x23, 0x0d, 0xe9, 0x04, 
    0xfe, 0xd8, 0xfa, 0x0f, 0x12, 0xe1, 0xf9, 0x0a, 0x01, 0x09, 0xd4, 0x13, 
    0xdc, 0xd5, 0xef, 0xf1, 0x02, 0xee, 0x0f, 0x0e, 0xf5, 0x22, 0xf3, 0x12, 
    0x16, 0xfb, 0xec, 0xda, 0xa7, 0xdb, 0x16, 0x04, 0x08, 0x25, 0xf5, 0xea, 
    0xde, 0xe2, 0xfb, 0x21, 0xf5, 0xfe, 0x16, 0xf4, 0x1c, 0x03, 0x06, 0x0c, 
    0xee, 0xe7, 0x01, 0xf5, 0xdc, 0xe8, 0xf8, 0x17, 0xd9, 0xfc, 0x11, 0x3a, 
    0x22, 0xf6, 0x09, 0x28, 0x2a, 0x13, 0x06, 0xfd, 0x0a, 0xf3, 0x17, 0x0f, 
    0x30, 0xfb, 0xca, 0xf5, 0xff, 0xe7, 0xff, 0xf1, 0xe5, 0xff, 0xf6, 0xf9, 
    0x0b, 0x15, 0x18, 0x11, 0x22, 0x08, 0xf3, 0x0d, 0xe3, 0x04, 0x0a, 0xe2, 
    0x21, 0xe1, 0x02, 0x0f, 0x26, 0x26, 0xfe, 0x18, 0x00, 0xc7, 0xda, 0x09, 
    0x03, 0xf2, 0x1b, 0x33, 0xff, 0x2b, 0xeb, 0xff, 0xd5, 0xfb, 0xfb, 0x13, 
    0x0e, 0xf5, 0xf0, 0x18, 0xee, 0xf3, 0xe7, 0xf9, 0x18, 0xf0, 0x06, 0x13, 
    0xfe, 0x22, 0x0a, 0x0b, 0xfe, 0x0b, 0x1a, 0xf6, 0x18, 0x0d, 0x03, 0x14, 
    0xfe, 0xec, 0xd3, 0xcb, 0xe3, 0xb6, 0x16, 0xcd, 0x11, 0xda, 0xe9, 0xcd, 
    0xd4, 0xee, 0xff, 0xd1, 0xf5, 0x24, 0x04, 0xfe, 0x11, 0xe5, 0x2c, 0xc7, 
    0x08, 0xd2, 0x0f, 0x10, 0x06, 0xf2, 0xdf, 0xca, 0xf4, 0x21, 0x01, 0x33, 
    0x1b, 0x07, 0xfe, 0x21, 0x04, 0xe2, 0xfb, 0x27, 0xf2, 0xff, 0xe9, 0xfb, 
    0xe9, 0x0d, 0x0f, 0x19, 0xf5, 0xfa, 0xec, 0xf4, 0xf3, 0xe7, 0xfb, 0xe7, 
    0xf2, 0xfa, 0x13, 0x0d, 0x05, 0x1e, 0xfe, 0xf5, 0x0f, 0xd9, 0xed, 0x28, 
    0xff, 0xe4, 0x05, 0x4b, 0x38, 0x04, 0xf7, 0xe5, 0x3a, 0x01, 0xc1, 0x17, 
    0x1a, 0xf4, 0xf1, 0xfa, 0x05, 0x05, 0xf5, 0x00, 0xf6, 0xe6, 0x24, 0x1c, 
    0x00, 0x07, 0xe4, 0x0b, 0xf2, 0xf8, 0xd4, 0xd6, 0xe8, 0x25, 0xdd, 0xfc, 
    0x10, 0x10, 0x17, 0x09, 0x25, 0xc3, 0xd0, 0xf6, 0x08, 0xfb, 0x07, 0x22, 
    0x04, 0x0a, 0xf4, 0xe9, 0x00, 0x08, 0xef, 0xdf, 0xe8, 0x01, 0x11, 0xfa, 
    0x02, 0xe3, 0x0d, 0xea, 0xfe, 0xfc, 0x1b, 0x07, 0x1f, 0x20, 0xf1, 0x0a, 
    0x0c, 0x0c, 0xef, 0xe2, 0xda, 0xef, 0x1f, 0x2d, 0x09, 0x04, 0x03, 0x09, 
    0xd6, 0x20, 0xee, 0xd8, 0xdc, 0xe5, 0x11, 0x02, 0xee, 0x15, 0xd3, 0x02, 
    0x0b, 0x3e, 0xe6, 0xdf, 0xd1, 0xda, 0x21, 0xe1, 0x05, 0xcd, 0x0e, 0x04, 
    0x01, 0xd2, 0x09, 0xe2, 0x15, 0xda, 0xf5, 0x45, 0xe0, 0x0b, 0xfb, 0xfe, 
    0xe4, 0xe1, 0xfe, 0xd6, 0xe8, 0x11, 0xea, 0x09, 0x06, 0x13, 0x1e, 0x10, 
    0xff, 0x1e, 0x00, 0x03, 0x2c, 0xee, 0x2b, 0xf1, 0xd8, 0xfb, 0xdf, 0x19, 
    0x00, 0xeb, 0x10, 0xe6, 0xe7, 0x01, 0x2b, 0x0e, 0x22, 0x1b, 0x11, 0x2a, 
    0xe0, 0xf4, 0xcc, 0xcb, 0xd7, 0xbb, 0x16, 0xcd, 0x0e, 0xff, 0xda, 0x23, 
    0x14, 0x0c, 0xe2, 0xee, 0xff, 0x1b, 0x09, 0x10, 0xeb, 0xe0, 0xe8, 0xf5, 
    0x25, 0xc5, 0x20, 0x21, 0xe8, 0x09, 0xb1, 0xe1, 0x06, 0x0c, 0xe8, 0x15, 
    0xdf, 0xe0, 0xdb, 0xff, 0x04, 0x13, 0x24, 0x02, 0x1e, 0x0d, 0xfb, 0x07, 
    0xf4, 0x07, 0x04, 0xfd, 0x0b, 0x08, 0x0d, 0x17, 0xf9, 0xe3, 0x1d, 0x09, 
    0x17, 0x1b, 0x14, 0xf5, 0x02, 0xfc, 0x16, 0x09, 0xec, 0xfd, 0x20, 0xee, 
    0xf0, 0xf9, 0x26, 0xeb, 0x02, 0x14, 0x04, 0x19, 0x28, 0x03, 0xfd, 0x13, 
    0x11, 0x0f, 0x06, 0xf1, 0xf1, 0x01, 0xf2, 0x0d, 0x1c, 0xf5, 0xf3, 0xdd, 
    0xef, 0x20, 0x20, 0xe6, 0x0d, 0xe0, 0x18, 0x04, 0x0e, 0xf2, 0x0b, 0x04, 
    0x03, 0xf5, 0xf4, 0xec, 0xfb, 0x13, 0xff, 0xea, 0xe0, 0xf5, 0x04, 0x07, 
    0xf3, 0xfe, 0x0f, 0x19, 0x22, 0xe8, 0xe1, 0x11, 0xd4, 0x02, 0xe7, 0x10, 
    0x0a, 0xec, 0x04, 0xfc, 0x01, 0x27, 0xdc, 0xdb, 0x1b, 0x1e, 0x0f, 0xfb, 
    0x11, 0xeb, 0xdf, 0xe4, 0x1d, 0x30, 0x09, 0x18, 0x08, 0xe7, 0x0e, 0x07, 
    0xff, 0xea, 0x00, 0xec, 0x1c, 0xf1, 0xda, 0x16, 0xeb, 0xee, 0xfc, 0xea, 
    0x11, 0xda, 0x02, 0x16, 0xeb, 0xfc, 0x0e, 0x03, 0xf5, 0x08, 0x00, 0x17, 
    0x01, 0x1e, 0x27, 0x08, 0x16, 0xde, 0x12, 0x0d, 0xf9, 0xdc, 0x35, 0xec, 
    0xcc, 0xee, 0xc9, 0xf3, 0x04, 0xfe, 0x0b, 0xd9, 0xde, 0xd3, 0x14, 0xfa, 
    0xd0, 0x1b, 0xbc, 0xaa, 0x15, 0xfe, 0xfb, 0xf6, 0x1d, 0x10, 0x11, 0xe4, 
    0x0f, 0xfe, 0x27, 0x23, 0xe5, 0x17, 0x27, 0xca, 0x0d, 0x0e, 0x09, 0xf5, 
    0x09, 0x0d, 0x24, 0x1d, 0xeb, 0xc0, 0x2c, 0x0f, 0xfe, 0xf7, 0xf3, 0xf4, 
    0x04, 0x07, 0xed, 0xe4, 0xe9, 0xbb, 0x04, 0xe9, 0xfb, 0x19, 0xfa, 0xf4, 
    0xff, 0x38, 0xd2, 0xca, 0x18, 0xd0, 0x1b, 0x22, 0x1b, 0xea, 0xd1, 0xfd, 
    0x20, 0x05, 0x2e, 0x27, 0xe7, 0xf6, 0xf1, 0xf6, 0xfb, 0xca, 0xfc, 0xee, 
    0x0b, 0x1f, 0xdc, 0x1f, 0xf2, 0xd2, 0xca, 0x23, 0x06, 0xee, 0xc4, 0xb8, 
    0xdd, 0x1b, 0x01, 0xff, 0x10, 0x25, 0xfd, 0xf7, 0xd9, 0xfe, 0xd1, 0xac, 
    0x0c, 0x3b, 0x06, 0x06, 0x2f, 0x14, 0xd9, 0xf8, 0x12, 0x15, 0x04, 0x17, 
    0x04, 0x1a, 0x10, 0x0c, 0x16, 0x13, 0xe9, 0x15, 0x26, 0x1f, 0x1a, 0x06, 
    0x11, 0xed, 0xe6, 0xf5, 0xf1, 0xf4, 0x18, 0x2b, 0xca, 0x02, 0x25, 0xfd, 
    0x13, 0x17, 0x29, 0x0c, 0xf8, 0xe8, 0x2f, 0xe9, 0xe1, 0x24, 0xf4, 0xb2, 
    0x1b, 0xb2, 0xf4, 0x0d, 0x06, 0xe0, 0xe5, 0xdf, 0xfc, 0xce, 0xef, 0xc5, 
    0x0f, 0xf7, 0x04, 0xe2, 0x06, 0x08, 0x1b, 0x28, 0x18, 0xd7, 0xd8, 0xe4, 
    0x0c, 0xe7, 0x09, 0xed, 0x01, 0xee, 0xf9, 0xdc, 0xe9, 0x18, 0x11, 0xe3, 
    0x1b, 0x22, 0x09, 0x20, 0x14, 0xea, 0xf7, 0x00, 0x01, 0xfd, 0xe7, 0x06, 
    0xf9, 0x0e, 0xd6, 0xe1, 0x0c, 0x05, 0x20, 0x1f, 0x0e, 0x02, 0x1b, 0x1f, 
    0x03, 0x1b, 0xf3, 0x04, 0x12, 0xff, 0xd9, 0xd8, 0xf3, 0xd3, 0xe4, 0x04, 
    0xe0, 0x22, 0x28, 0x14, 0x00, 0x1f, 0xff, 0xef, 0xff, 0xe7, 0xfe, 0x0f, 
    0x0f, 0xdc, 0x23, 0x08, 0xf1, 0xf2, 0x02, 0xfd, 0xf6, 0xd6, 0x1f, 0xf2, 
    0x0a, 0xfa, 0xfd, 0xe4, 0xfd, 0xea, 0xe9, 0xe9, 0xe2, 0xfd, 0x1c, 0xf1, 
    0xeb, 0x25, 0x19, 0x07, 0xef, 0x1c, 0x12, 0x11, 0x1d, 0x0f, 0xf5, 0xf2, 
    0x00, 0x0c, 0xf3, 0x0d, 0xeb, 0x14, 0x00, 0xeb, 0x03, 0x12, 0xf0, 0x14, 
    0xfd, 0x01, 0xf0, 0x37, 0xe6, 0x14, 0x04, 0x0a, 0x00, 0x12, 0xd7, 0xe1, 
    0x05, 0x49, 0xc2, 0xf8, 0x0d, 0xeb, 0xf5, 0x05, 0xdc, 0xde, 0x0f, 0xbe, 
    0xfc, 0xc1, 0xc6, 0x1b, 0xf3, 0x22, 0x01, 0x1d, 0xe8, 0xcc, 0x1c, 0x0e, 
    0x12, 0x0f, 0x08, 0xd1, 0xf3, 0x2c, 0xd4, 0xd6, 0x01, 0x05, 0xe1, 0x04, 
    0xed, 0x49, 0x19, 0xf9, 0x06, 0x08, 0xc9, 0xd6, 0x0f, 0x17, 0xfd, 0xe3, 
    0x04, 0x0c, 0x1a, 0xf5, 0xe6, 0x0f, 0xd7, 0xeb, 0xd0, 0xce, 0xe4, 0xe2, 
    0xfd, 0xeb, 0xe5, 0x00, 0xf6, 0x0e, 0xf1, 0xfe, 0x1e, 0x05, 0xf6, 0xfb, 
    0xfd, 0xcd, 0xf8, 0x26, 0x09, 0x44, 0x2f, 0x0a, 0x25, 0xdf, 0xf3, 0x1e, 
    0x0a, 0xe0, 0x1b, 0x1d, 0xed, 0x13, 0xf4, 0xf1, 0xe8, 0x06, 0x14, 0xdb, 
    0x0b, 0x15, 0x05, 0x07, 0xef, 0x21, 0xcf, 0xec, 0xe5, 0xfe, 0x16, 0xff, 
    0x20, 0xf1, 0x0f, 0x23, 0x06, 0xd3, 0x84, 0x35, 0x38, 0xdc, 0x19, 0x15, 
    0x3b, 0xdb, 0x97, 0x0c, 0x0d, 0xe3, 0xf9, 0xe9, 0xfc, 0xeb, 0xe6, 0x01, 
    0x12, 0x0f, 0x1f, 0x59, 0x03, 0x12, 0xd8, 0x03, 0xfe, 0x17, 0xc2, 0xba, 
    0xf3, 0x2e, 0xdd, 0x74, 0x36, 0x3e, 0x18, 0x3f, 0xd6, 0xfa, 0xf1, 0x16, 
    0x0e, 0xd8, 0xfb, 0xb6, 0xf4, 0xd5, 0xe8, 0xf0, 0x11, 0xd9, 0x0e, 0x0e, 
    0x0d, 0xfa, 0xfd, 0x1b, 0xe1, 0x0f, 0xdd, 0x0b, 0x0e, 0x17, 0x04, 0xfb, 
    0xf9, 0x21, 0xf1, 0x00, 0x15, 0xf9, 0xf7, 0x17, 0xdc, 0x09, 0xe1, 0xe5, 
    0x17, 0xeb, 0xd6, 0xd4, 0xee, 0x03, 0x19, 0xcc, 0xdd, 0xd5, 0x3d, 0xd2, 
    0xd6, 0xfe, 0xf2, 0x24, 0xe3, 0xf8, 0x0a, 0x1a, 0xeb, 0x00, 0xe8, 0xf3, 
    0xe2, 0xe1, 0xf2, 0xf1, 0xdf, 0x19, 0x07, 0x01, 0x05, 0x3b, 0xfb, 0xf7, 
    0x03, 0xff, 0x1a, 0x17, 0x0b, 0xff, 0x18, 0x0f, 0xfc, 0x03, 0x06, 0xf5, 
    0xe1, 0xe2, 0x1d, 0x1a, 0xe4, 0x03, 0xec, 0xf5, 0xde, 0xe9, 0x0f, 0xec, 
    0x01, 0xfc, 0xf6, 0x00, 0xee, 0x0b, 0xfa, 0x06, 0xe4, 0x09, 0x0d, 0x0f, 
    0x0e, 0xd9, 0x1a, 0xed, 0x26, 0x13, 0xd3, 0x11, 0xe3, 0x20, 0x1d, 0xd5, 
    0xef, 0x0d, 0x00, 0x01, 0xeb, 0xdd, 0xe5, 0xf6, 0xfb, 0xca, 0xed, 0x09, 
    0xef, 0xf8, 0x06, 0x0b, 0x04, 0xf6, 0xe5, 0x01, 0x31, 0xfd, 0x03, 0xda, 
    0xcf, 0xf0, 0x00, 0x48, 0x04, 0x07, 0x07, 0x08, 0xff, 0x0a, 0xed, 0x13, 
    0x0f, 0xfb, 0x0c, 0x15, 0x07, 0x01, 0x09, 0x11, 0x1f, 0x21, 0xf5, 0x06, 
    0xf9, 0x07, 0x22, 0x1f, 0x0e, 0x23, 0xfa, 0x09, 0x0c, 0x18, 0x12, 0xda, 
    0xfa, 0x09, 0xe0, 0x1d, 0xed, 0xe0, 0xdd, 0x0d, 0x15, 0xef, 0xce, 0x3e, 
    0x18, 0xe2, 0xd8, 0x0e, 0x07, 0x00, 0xe6, 0x04, 0x04, 0x15, 0x1a, 0x16, 
    0x08, 0x02, 0x0f, 0xf3, 0xcf, 0x04, 0xe6, 0xd5, 0x15, 0xe7, 0x0a, 0xd7, 
    0xf9, 0x2e, 0xf3, 0x14, 0x06, 0x15, 0xda, 0x15, 0xdc, 0xe6, 0xfa, 0xc7, 
    0x15, 0x0b, 0xdf, 0xdf, 0xd3, 0x1a, 0x18, 0x0f, 0x1a, 0xf5, 0x09, 0x17, 
    0x07, 0xfd, 0x37, 0x17, 0x39, 0x27, 0xe1, 0xc2, 0xfd, 0x0d, 0x08, 0xef, 
    0xdc, 0xf7, 0x18, 0xf1, 0xf1, 0x4d, 0x3a, 0xd8, 0xc1, 0x3c, 0x0b, 0x10, 
    0x2f, 0xd4, 0xf1, 0xeb, 0xfd, 0xee, 0xca, 0xdf, 0xe8, 0x18, 0xf4, 0xfe, 
    0x04, 0x00, 0x0d, 0x1c, 0xff, 0x16, 0x10, 0xfa, 0xfc, 0xf8, 0xf0, 0xe4, 
    0x0f, 0xfb, 0xe4, 0xca, 0xf4, 0x13, 0x04, 0x39, 0x05, 0x34, 0xfc, 0x1b, 
    0x42, 0xfc, 0xff, 0xff, 0x04, 0x00, 0x00, 0x00, 0x00, 0x01, 0x00, 0x00, 
    0x12, 0xf5, 0x9e, 0x3d, 0xa9, 0xb0, 0x3c, 0x3e, 0x58, 0x5a, 0xa9, 0x3d, 
    0x85, 0x4f, 0x21, 0x3e, 0xa1, 0xfa, 0x52, 0x3e, 0xbf, 0x56, 0xc5, 0xbc, 
    0x7e, 0x11, 0xef, 0x3d, 0x35, 0x7b, 0x78, 0xbd, 0x5c, 0x6e, 0x33, 0xbd, 
    0x8e, 0xc8, 0x93, 0x3d, 0x29, 0x52, 0x7e, 0x3e, 0x9b, 0x76, 0x86, 0xbc, 
    0xa1, 0xa7, 0x48, 0xbd, 0x50, 0xb5, 0x00, 0x3e, 0xe4, 0x81, 0x58, 0xbd, 
    0x09, 0x9a, 0xd4, 0x3d, 0xe6, 0x59, 0xfb, 0xbc, 0x06, 0x5a, 0x2a, 0xbd, 
    0x81, 0x02, 0x0a, 0x3e, 0x40, 0x9a, 0xf0, 0x3d, 0x91, 0x65, 0x9d, 0x3e, 
    0xc4, 0x41, 0xc6, 0x3d, 0x5d, 0x01, 0xce, 0xba, 0x13, 0xfa, 0x8b, 0xbd, 
    0x3b, 0x6f, 0x1d, 0x3d, 0x42, 0xf3, 0x82, 0xbd, 0x26, 0xeb, 0x95, 0x3d, 
    0x62, 0x94, 0xc0, 0x3d, 0xe1, 0x4b, 0xf4, 0xbc, 0x4a, 0x33, 0xb7, 0x3d, 
    0xee, 0xf0, 0xb2, 0xbc, 0x57, 0xfa, 0x2e, 0xbd, 0x3c, 0x25, 0x69, 0xbd, 
    0x4d, 0x72, 0x22, 0x3e, 0x66, 0x57, 0x76, 0xbd, 0x2b, 0x84, 0xff, 0x3a, 
    0x2b, 0x9a, 0xeb, 0xbc, 0xc1, 0x0a, 0xd8, 0x3d, 0x3b, 0x43, 0x34, 0xbd, 
    0xe4, 0xe3, 0xa7, 0x3d, 0x53, 0xfe, 0x0e, 0xbd, 0x56, 0x92, 0x04, 0xbd, 
    0x80, 0xb2, 0xe2, 0x3d, 0x48, 0x23, 0x76, 0xbd, 0x99, 0x43, 0x7e, 0x3e, 
    0x8f, 0x8d, 0x46, 0x3d, 0x55, 0xdf, 0x26, 0x3e, 0x2c, 0x25, 0xdc, 0x3d, 
    0xef, 0xdc, 0x1c, 0x3e, 0x62, 0xf4, 0x25, 0xbd, 0x99, 0xf7, 0x40, 0xbd, 
    0xf2, 0x74, 0xac, 0x3c, 0xe4, 0xdf, 0x7a, 0x3e, 0x10, 0x77, 0x5e, 0x3d, 
    0x10, 0x59, 0x40, 0x3d, 0x18, 0xd2, 0x75, 0x3d, 0x01, 0x2d, 0xcc, 0x3d, 
    0x82, 0x7b, 0xfe, 0x3d, 0x3c, 0x12, 0xb8, 0x3b, 0x8a, 0x48, 0xea, 0x3d, 
    0xaf, 0x04, 0x95, 0xbd, 0x49, 0x0c, 0xc0, 0xbc, 0xc6, 0x20, 0x26, 0x3e, 
    0xe5, 0x01, 0x09, 0xbe, 0x4e, 0xfd, 0xff, 0xff, 0x04, 0x00, 0x00, 0x00, 
    0x08, 0x00, 0x00, 0x00, 0x4b, 0x11, 0x88, 0xbd, 0x56, 0x11, 0x88, 0x3d, 
    0x62, 0xfd, 0xff, 0xff, 0x04, 0x00, 0x00, 0x00, 0x00, 0x02, 0x00, 0x00, 
    0xcc, 0x6d, 0xc7, 0xbe, 0x0d, 0x41, 0xa2, 0xbe, 0xcc, 0x20, 0x8c, 0xbe, 
    0x0f, 0x19, 0xbe, 0xbd, 0xcd, 0x77, 0xcd, 0x3e, 0x17, 0x72, 0x47, 0xbe, 
    0x2d, 0x31, 0x8e, 0xbe, 0x14, 0x88, 0x02, 0x3f, 0xac, 0x9a, 0x6d, 0x3e, 
    0x5b, 0x97, 0xfa, 0xbe, 0x2e, 0x34, 0x2c, 0xbf, 0xa9, 0xfa, 0x9b, 0x3d, 
    0xcf, 0xe6, 0x05, 0xbe, 0x06, 0x99, 0xe8, 0x3c, 0x82, 0x69, 0xc5, 0x3d, 
    0xa7, 0x86, 0x9b, 0xbe, 0xf7, 0x34, 0xce, 0xbd, 0x1c, 0x96, 0x65, 0x3e, 
    0xb9, 0x74, 0x5f, 0xbe, 0x0d, 0x1d, 0xf9, 0xbc, 0xae, 0x5c, 0x91, 0xbe, 
    0x90, 0x21, 0x6d, 0xbe, 0x2e, 0x6d, 0x38, 0x3e, 0x9d, 0x18, 0x9b, 0x3e, 
    0x37, 0x51, 0x90, 0xbe, 0xe9, 0x57, 0xcb, 0x3c, 0x47, 0x66, 0x09, 0xbd, 
    0x2a, 0xa2, 0x56, 0xbe, 0xdf, 0x67, 0x9e, 0x3d, 0xeb, 0xcc, 0x26, 0x3e, 
    0xfd, 0x3a, 0xce, 0x3e, 0x7e, 0xf9, 0x16, 0x3f, 0x3c, 0x34, 0x40, 0xbd, 
    0x77, 0xa5, 0xd0, 0xbd, 0x5a, 0x56, 0xdc, 0x3d, 0x80, 0x4e, 0x14, 0x3f, 
    0xe9, 0xf6, 0xab, 0x3e, 0x73, 0x57, 0x2f, 0xbe, 0x16, 0x47, 0x73, 0x3e, 
    0xe3, 0x98, 0xa8, 0xbe, 0xca, 0x6d, 0x4d, 0x3e, 0x88, 0x32, 0x95, 0x3e, 
    0x0e, 0x30, 0xe6, 0xbe, 0x25, 0xcf, 0x03, 0x3e, 0x22, 0x10, 0x56, 0xbe, 
    0xdc, 0x0c, 0x49, 0xbe, 0xcb, 0x90, 0x2f, 0xbe, 0xf2, 0xd7, 0xcd, 0xbe, 
    0x0d, 0x09, 0xcf, 0xbe, 0xe7, 0xb9, 0x3b, 0x3e, 0xc6, 0x6a, 0x86, 0x3e, 
    0x46, 0x6a, 0x73, 0x3e, 0xf8, 0x83, 0xe9, 0xbe, 0xe2, 0xb1, 0xbb, 0xbe, 
    0x84, 0x8d, 0xb2, 0x3e, 0x2c, 0x51, 0x28, 0x3f, 0xa5, 0x0f, 0x95, 0xbe, 
    0xac, 0xf0, 0x92, 0xbe, 0xec, 0xd8, 0x92, 0x3e, 0x4a, 0xf6, 0xaa, 0xbe, 
    0x61, 0x04, 0xa4, 0x3d, 0x9d, 0x6e, 0x31, 0x3e, 0x11, 0x11, 0xb1, 0x3e, 
    0xb2, 0x33, 0xbf, 0x3e, 0xb5, 0xc5, 0xac, 0x3e, 0x23, 0x89, 0x17, 0x3e, 
    0x0a, 0x40, 0x06, 0x3e, 0x84, 0x79, 0xb2, 0x3e, 0x5a, 0xdd, 0xee, 0xbe, 
    0x0f, 0x5b, 0x22, 0xbe, 0xb1, 0x4b, 0x9f, 0x3e, 0x62, 0x23, 0xc1, 0xbe, 
    0x15, 0x10, 0x28, 0xbf, 0x1a, 0x53, 0x83, 0x3e, 0x4c, 0x8e, 0xd2, 0x3d, 
    0x27, 0xa4, 0xdf, 0xbd, 0x50, 0x13, 0xab, 0xbe, 0xe3, 0x12, 0xb0, 0x3e, 
    0x74, 0x8f, 0x6a, 0xbe, 0xce, 0x30, 0x42, 0x3e, 0xfe, 0x83, 0x4e, 0xbe, 
    0x21, 0xf5, 0x14, 0xbe, 0x41, 0x62, 0x06, 0x3f, 0x26, 0x1e, 0x94, 0x3e, 
    0xfc, 0xb8, 0x20, 0x3f, 0x31, 0x8f, 0x40, 0x3e, 0xb1, 0x38, 0x82, 0x3e, 
    0xaf, 0x2f, 0x00, 0xbe, 0x5b, 0x0f, 0x63, 0xbc, 0x98, 0x65, 0x8d, 0xbe, 
    0xb3, 0x9c, 0xa8, 0x3e, 0xb5, 0xba, 0xc8, 0x3e, 0xb6, 0x94, 0x43, 0x3d, 
    0xb9, 0x2b, 0x9d, 0xbe, 0x1b, 0x2e, 0xe2, 0x3d, 0x46, 0xbd, 0x0d, 0xbf, 
    0x83, 0x93, 0xbd, 0xbe, 0x6b, 0xb1, 0xc9, 0x3e, 0xb5, 0x4b, 0x8b, 0xbe, 
    0x9e, 0xf8, 0x25, 0xbf, 0x61, 0xaf, 0x9c, 0xbe, 0x88, 0x90, 0xad, 0x3e, 
    0xe7, 0x2a, 0x90, 0xbe, 0xb4, 0xf1, 0x62, 0x3e, 0x18, 0x89, 0x86, 0xbe, 
    0xcc, 0x0d, 0x7b, 0xbe, 0xeb, 0x31, 0x7e, 0x3e, 0x7e, 0x5e, 0x1f, 0xbe, 
    0xf4, 0xfa, 0xfc, 0x3e, 0x02, 0xfe, 0xb3, 0x3e, 0xbc, 0x51, 0x36, 0x3e, 
    0x39, 0xb6, 0x4a, 0x3e, 0x52, 0x55, 0xc9, 0xbd, 0xa9, 0x6e, 0x62, 0xbe, 
    0x31, 0xd8, 0xb6, 0xbd, 0x09, 0x18, 0xd2, 0xbe, 0x7c, 0x57, 0x8d, 0x3e, 
    0x8b, 0x1b, 0xec, 0x3e, 0x83, 0xba, 0xf1, 0x3d, 0x13, 0x6a, 0x4f, 0xbe, 
    0xd2, 0xc4, 0x39, 0x3e, 0x29, 0x97, 0xbb, 0x3e, 0x7e, 0xb0, 0x8e, 0x3d, 
    0xae, 0xfc, 0x09, 0x3e, 0x4c, 0xff, 0x58, 0xbe, 0x63, 0xa5, 0xaa, 0xbe, 
    0xe2, 0xb7, 0x39, 0xbe, 0x3a, 0x17, 0x94, 0xbe, 0x80, 0xfb, 0xff, 0xff, 
    0x84, 0xfb, 0xff, 0xff, 0x0f, 0x00, 0x00, 0x00, 0x4d, 0x4c, 0x49, 0x52, 
    0x20, 0x43, 0x6f, 0x6e, 0x76, 0x65, 0x72, 0x74, 0x65, 0x64, 0x2e, 0x00, 
    0x01, 0x00, 0x00, 0x00, 0x14, 0x00, 0x00, 0x00, 0x00, 0x00, 0x0e, 0x00, 
    0x18, 0x00, 0x14, 0x00, 0x10, 0x00, 0x0c, 0x00, 0x08, 0x00, 0x04, 0x00, 
    0x0e, 0x00, 0x00, 0x00, 0x14, 0x00, 0x00, 0x00, 0x1c, 0x00, 0x00, 0x00, 
    0xf0, 0x00, 0x00, 0x00, 0xf4, 0x00, 0x00, 0x00, 0xf8, 0x00, 0x00, 0x00, 
    0x04, 0x00, 0x00, 0x00, 0x6d, 0x61, 0x69, 0x6e, 0x00, 0x00, 0x00, 0x00, 
    0x03, 0x00, 0x00, 0x00, 0x94, 0x00, 0x00, 0x00, 0x50, 0x00, 0x00, 0x00, 
    0x14, 0x00, 0x00, 0x00, 0x00, 0x00, 0x0e, 0x00, 0x1a, 0x00, 0x14, 0x00, 
    0x10, 0x00, 0x0c, 0x00, 0x0b, 0x00, 0x04, 0x00, 0x0e, 0x00, 0x00, 0x00, 
    0x1c, 0x00, 0x00, 0x00, 0x00, 0x00, 0x00, 0x09, 0x1c, 0x00, 0x00, 0x00, 
    0x20, 0x00, 0x00, 0x00, 0x01, 0x00, 0x00, 0x00, 0x00, 0x00, 0x06, 0x00, 
    0x08, 0x00, 0x04, 0x00, 0x06, 0x00, 0x00, 0x00, 0x00, 0x00, 0x80, 0x3f, 
    0x01, 0x00, 0x00, 0x00, 0x07, 0x00, 0x00, 0x00, 0x01, 0x00, 0x00, 0x00, 
    0x06, 0x00, 0x00, 0x00, 0xce, 0xff, 0xff, 0xff, 0x10, 0x00, 0x00, 0x00, 
    0x00, 0x00, 0x00, 0x08, 0x0c, 0x00, 0x00, 0x00, 0x10, 0x00, 0x00, 0x00, 
    0x44, 0xfc, 0xff, 0xff, 0x01, 0x00, 0x00, 0x00, 0x06, 0x00, 0x00, 0x00, 
    0x03, 0x00, 0x00, 0x00, 0x05, 0x00, 0x00, 0x00, 0x01, 0x00, 0x00, 0x00, 
    0x02, 0x00, 0x00, 0x00, 0x00, 0x00, 0x0e, 0x00, 0x14, 0x00, 0x00, 0x00, 
    0x10, 0x00, 0x0c, 0x00, 0x0b, 0x00, 0x04, 0x00, 0x0e, 0x00, 0x00, 0x00, 
    0x1c, 0x00, 0x00, 0x00, 0x00, 0x00, 0x00, 0x08, 0x1c, 0x00, 0x00, 0x00, 
    0x20, 0x00, 0x00, 0x00, 0x0c, 0x00, 0x08, 0x00, 0x07, 0x00, 0x00, 0x00, 
    0x00, 0x00, 0x06, 0x00, 0x0c, 0x00, 0x00, 0x00, 0x00, 0x00, 0x01, 0x01, 
    0x01, 0x00, 0x00, 0x00, 0x05, 0x00, 0x00, 0x00, 0x03, 0x00, 0x00, 0x00, 
    0x00, 0x00, 0x00, 0x00, 0x04, 0x00, 0x00, 0x00, 0x03, 0x00, 0x00, 0x00, 
    0x01, 0x00, 0x00, 0x00, 0x07, 0x00, 0x00, 0x00, 0x01, 0x00, 0x00, 0x00, 
    0x00, 0x00, 0x00, 0x00, 0x08, 0x00, 0x00, 0x00, 0x14, 0x03, 0x00, 0x00, 
    0xb0, 0x02, 0x00, 0x00, 0x40, 0x02, 0x00, 0x00, 0xec, 0x01, 0x00, 0x00, 
    0x78, 0x01, 0x00, 0x00, 0xd8, 0x00, 0x00, 0x00, 0x60, 0x00, 0x00, 0x00, 
    0x04, 0x00, 0x00, 0x00, 0x22, 0xfd, 0xff, 0xff, 0x00, 0x00, 0x00, 0x01, 
    0x14, 0x00, 0x00, 0x00, 0x1c, 0x00, 0x00, 0x00, 0x1c, 0x00, 0x00, 0x00, 
    0x08, 0x00, 0x00, 0x00, 0x34, 0x00, 0x00, 0x00, 0x02, 0x00, 0x00, 0x00, 
    0xff, 0xff, 0xff, 0xff, 0x02, 0x00, 0x00, 0x00, 0x0c, 0xfd, 0xff, 0xff, 
    0x19, 0x00, 0x00, 0x00, 0x53, 0x74, 0x61, 0x74, 0x65, 0x66, 0x75, 0x6c, 
    0x50, 0x61, 0x72, 0x74, 0x69, 0x74, 0x69, 0x6f, 0x6e, 0x65, 0x64, 0x43, 
    0x61, 0x6c, 0x6c, 0x3a, 0x30, 0x00, 0x00, 0x00, 0x02, 0x00, 0x00, 0x00, 
    0x01, 0x00, 0x00, 0x00, 0x02, 0x00, 0x00, 0x00, 0x7a, 0xfd, 0xff, 0xff, 
    0x00, 0x00, 0x00, 0x01, 0x14, 0x00, 0x00, 0x00, 0x1c, 0x00, 0x00, 0x00, 
    0x1c, 0x00, 0x00, 0x00, 0x07, 0x00, 0x00, 0x00, 0x50, 0x00, 0x00, 0x00, 
    0x02, 0x00, 0x00, 0x00, 0xff, 0xff, 0xff, 0xff, 0x02, 0x00, 0x00, 0x00, 
    0x64, 0xfd, 0xff, 0xff, 0x34, 0x00, 0x00, 0x00, 0x73, 0x65, 0x71, 0x75, 
    0x65, 0x6e, 0x74, 0x69, 0x61, 0x6c, 0x2f, 0x64, 0x65, 0x6e, 0x73, 0x65, 
    0x5f, 0x31, 0x2f, 0x4d, 0x61, 0x74, 0x4d, 0x75, 0x6c, 0x3b, 0x73, 0x65, 
    0x71, 0x75, 0x65, 0x6e, 0x74, 0x69, 0x61, 0x6c, 0x2f, 0x64, 0x65, 0x6e, 
    0x73, 0x65, 0x5f, 0x31, 0x2f, 0x42, 0x69, 0x61, 0x73, 0x41, 0x64, 0x64, 
    0x00, 0x00, 0x00, 0x00, 0x02, 0x00, 0x00, 0x00, 0x01, 0x00, 0x00, 0x00, 
    0x02, 0x00, 0x00, 0x00, 0xee, 0xfd, 0xff, 0xff, 0x00, 0x00, 0x00, 0x01, 
    0x14, 0x00, 0x00, 0x00, 0x1c, 0x00, 0x00, 0x00, 0x1c, 0x00, 0x00, 0x00, 
    0x06, 0x00, 0x00, 0x00, 0x60, 0x00, 0x00, 0x00, 0x02, 0x00, 0x00, 0x00, 
    0xff, 0xff, 0xff, 0xff, 0x40, 0x00, 0x00, 0x00, 0xd8, 0xfd, 0xff, 0xff, 
    0x46, 0x00, 0x00, 0x00, 0x73, 0x65, 0x71, 0x75, 0x65, 0x6e, 0x74, 0x69, 
    0x61, 0x6c, 0x2f, 0x64, 0x65, 0x6e, 0x73, 0x65, 0x2f, 0x4d, 0x61, 0x74, 
    0x4d, 0x75, 0x6c, 0x3b, 0x73, 0x65, 0x71, 0x75, 0x65, 0x6e, 0x74, 0x69, 
    0x61, 0x6c, 0x2f, 0x64, 0x65, 0x6e, 0x73, 0x65, 0x2f, 0x52, 0x65, 0x6c, 
    0x75, 0x3b, 0x73, 0x65, 0x71, 0x75, 0x65, 0x6e, 0x74, 0x69, 0x61, 0x6c, 
    0x2f, 0x64, 0x65, 0x6e, 0x73, 0x65, 0x2f, 0x42, 0x69, 0x61, 0x73, 0x41, 
    0x64, 0x64, 0x00, 0x00, 0x02, 0x00, 0x00, 0x00, 0x01, 0x00, 0x00, 0x00, 
    0x40, 0x00, 0x00, 0x00, 0x00, 0x00, 0x16, 0x00, 0x1c, 0x00, 0x18, 0x00, 
    0x17, 0x00, 0x10, 0x00, 0x0c, 0x00, 0x08, 0x00, 0x00, 0x00, 0x00, 0x00, 
    0x00, 0x00, 0x07, 0x00, 0x16, 0x00, 0x00, 0x00, 0x00, 0x00, 0x00, 0x01, 
    0x20, 0x00, 0x00, 0x00, 0x3c, 0x00, 0x00, 0x00, 0x05, 0x00, 0x00, 0x00, 
    0x00, 0x00, 0x00, 0x09, 0x4c, 0x00, 0x00, 0x00, 0x0c, 0x00, 0x0c, 0x00, 
    0x00, 0x00, 0x00, 0x00, 0x08, 0x00, 0x04, 0x00, 0x0c, 0x00, 0x00, 0x00, 
    0x08, 0x00, 0x00, 0x00, 0x10, 0x00, 0x00, 0x00, 0x01, 0x00, 0x00, 0x00, 
    0x00, 0x00, 0x00, 0x00, 0x00, 0x00, 0x00, 0x00, 0x01, 0x00, 0x00, 0x00, 
    0xe1, 0x46, 0xeb, 0x3b, 0x17, 0x00, 0x00, 0x00, 0x73, 0x65, 0x71, 0x75, 
    0x65, 0x6e, 0x74, 0x69, 0x61, 0x6c, 0x2f, 0x64, 0x65, 0x6e, 0x73, 0x65, 
    0x2f, 0x4d, 0x61, 0x74, 0x4d, 0x75, 0x6c, 0x00, 0x02, 0x00, 0x00, 0x00, 
    0x40, 0x00, 0x00, 0x00, 0x26, 0x00, 0x00, 0x00, 0x5a, 0xff, 0xff, 0xff, 
    0x00, 0x00, 0x00, 0x01, 0x10, 0x00, 0x00, 0x00, 0x10, 0x00, 0x00, 0x00, 
    0x04, 0x00, 0x00, 0x00, 0x34, 0x00, 0x00, 0x00, 0xd4, 0xfe, 0xff, 0xff, 
    0x27, 0x00, 0x00, 0x00, 0x73, 0x65, 0x71, 0x75, 0x65, 0x6e, 0x74, 0x69, 
    0x61, 0x6c, 0x2f, 0x64, 0x65, 0x6e, 0x73, 0x65, 0x2f, 0x42, 0x69, 0x61, 
    0x73, 0x41, 0x64, 0x64, 0x2f, 0x52, 0x65, 0x61, 0x64, 0x56, 0x61, 0x72, 
    0x69, 0x61, 0x62, 0x6c, 0x65, 0x4f, 0x70, 0x00, 0x01, 0x00, 0x00, 0x00, 
    0x40, 0x00, 0x00, 0x00, 0xaa, 0xff, 0xff, 0xff, 0x00, 0x00, 0x00, 0x01, 
    0x10, 0x00, 0x00, 0x00, 0x10, 0x00, 0x00, 0x00, 0x03, 0x00, 0x00, 0x00, 
    0x38, 0x00, 0x00, 0x00, 0x24, 0xff, 0xff, 0xff, 0x29, 0x00, 0x00, 0x00, 
    0x73, 0x65, 0x71, 0x75, 0x65, 0x6e, 0x74, 0x69, 0x61, 0x6c, 0x2f, 0x64, 
    0x65, 0x6e, 0x73, 0x65, 0x5f, 0x31, 0x2f, 0x42, 0x69, 0x61, 0x73, 0x41, 
    0x64, 0x64, 0x2f, 0x52, 0x65, 0x61, 0x64, 0x56, 0x61, 0x72, 0x69, 0x61, 
    0x62, 0x6c, 0x65, 0x4f, 0x70, 0x00, 0x00, 0x00, 0x01, 0x00, 0x00, 0x00, 
    0x02, 0x00, 0x00, 0x00, 0x00, 0x00, 0x16, 0x00, 0x18, 0x00, 0x14, 0x00, 
    0x00, 0x00, 0x10, 0x00, 0x0c, 0x00, 0x08, 0x00, 0x00, 0x00, 0x00, 0x00, 
    0x00, 0x00, 0x07, 0x00, 0x16, 0x00, 0x00, 0x00, 0x00, 0x00, 0x00, 0x01, 
    0x10, 0x00, 0x00, 0x00, 0x10, 0x00, 0x00, 0x00, 0x02, 0x00, 0x00, 0x00, 
    0x28, 0x00, 0x00, 0x00, 0x90, 0xff, 0xff, 0xff, 0x19, 0x00, 0x00, 0x00, 
    0x73, 0x65, 0x71, 0x75, 0x65, 0x6e, 0x74, 0x69, 0x61, 0x6c, 0x2f, 0x64, 
    0x65, 0x6e, 0x73, 0x65, 0x5f, 0x31, 0x2f, 0x4d, 0x61, 0x74, 0x4d, 0x75, 
    0x6c, 0x00, 0x00, 0x00, 0x02, 0x00, 0x00, 0x00, 0x02, 0x00, 0x00, 0x00, 
    0x40, 0x00, 0x00, 0x00, 0x00, 0x00, 0x16, 0x00, 0x1c, 0x00, 0x18, 0x00, 
    0x00, 0x00, 0x14, 0x00, 0x10, 0x00, 0x0c, 0x00, 0x00, 0x00, 0x00, 0x00, 
    0x08, 0x00, 0x07, 0x00, 0x16, 0x00, 0x00, 0x00, 0x00, 0x00, 0x00, 0x01, 
    0x14, 0x00, 0x00, 0x00, 0x20, 0x00, 0x00, 0x00, 0x20, 0x00, 0x00, 0x00, 
    0x01, 0x00, 0x00, 0x00, 0x38, 0x00, 0x00, 0x00, 0x02, 0x00, 0x00, 0x00, 
    0xff, 0xff, 0xff, 0xff, 0x26, 0x00, 0x00, 0x00, 0x04, 0x00, 0x04, 0x00, 
    0x04, 0x00, 0x00, 0x00, 0x19, 0x00, 0x00, 0x00, 0x73, 0x65, 0x72, 0x76, 
    0x69, 0x6e, 0x67, 0x5f, 0x64, 0x65, 0x66, 0x61, 0x75, 0x6c, 0x74, 0x5f, 
    0x69, 0x6e, 0x70, 0x75, 0x74, 0x5f, 0x31, 0x3a, 0x30, 0x00, 0x00, 0x00, 
    0x02, 0x00, 0x00, 0x00, 0x01, 0x00, 0x00, 0x00, 0x26, 0x00, 0x00, 0x00, 
    0x02, 0x00, 0x00, 0x00, 0x2c, 0x00, 0x00, 0x00, 0x10, 0x00, 0x00, 0x00, 
    0x0c, 0x00, 0x0c, 0x00, 0x0b, 0x00, 0x00, 0x00, 0x00, 0x00, 0x04, 0x00, 
    0x0c, 0x00, 0x00, 0x00, 0x19, 0x00, 0x00, 0x00, 0x00, 0x00, 0x00, 0x19, 
    0x0c, 0x00, 0x10, 0x00, 0x0f, 0x00, 0x00, 0x00, 0x08, 0x00, 0x04, 0x00, 
    0x0c, 0x00, 0x00, 0x00, 0x09, 0x00, 0x00, 0x00, 0x09, 0x00, 0x00, 0x00, 
    0x00, 0x00, 0x00, 0x09
};

#endif //NETWORK_MODEL_H