const unsigned char model[] = {
  0x1c, 0x00, 0x00, 0x00, 0x54, 0x46, 0x4c, 0x33, 0x14, 0x00, 0x20, 0x00,
  0x1c, 0x00, 0x18, 0x00, 0x14, 0x00, 0x10, 0x00, 0x0c, 0x00, 0x00, 0x00,
  0x08, 0x00, 0x04, 0x00, 0x14, 0x00, 0x00, 0x00, 0x1c, 0x00, 0x00, 0x00,
  0x90, 0x00, 0x00, 0x00, 0xe8, 0x00, 0x00, 0x00, 0x04, 0x18, 0x00, 0x00,
  0x14, 0x18, 0x00, 0x00, 0xf4, 0x1a, 0x00, 0x00, 0x03, 0x00, 0x00, 0x00,
  0x01, 0x00, 0x00, 0x00, 0x10, 0x00, 0x00, 0x00, 0x00, 0x00, 0x0a, 0x00,
  0x10, 0x00, 0x0c, 0x00, 0x08, 0x00, 0x04, 0x00, 0x0a, 0x00, 0x00, 0x00,
  0x0c, 0x00, 0x00, 0x00, 0x1c, 0x00, 0x00, 0x00, 0x38, 0x00, 0x00, 0x00,
  0x0f, 0x00, 0x00, 0x00, 0x73, 0x65, 0x72, 0x76, 0x69, 0x6e, 0x67, 0x5f,
  0x64, 0x65, 0x66, 0x61, 0x75, 0x6c, 0x74, 0x00, 0x01, 0x00, 0x00, 0x00,
  0x04, 0x00, 0x00, 0x00, 0x98, 0xff, 0xff, 0xff, 0x04, 0x00, 0x00, 0x00,
  0x04, 0x00, 0x00, 0x00, 0x05, 0x00, 0x00, 0x00, 0x64, 0x65, 0x6e, 0x73,
  0x65, 0x00, 0x00, 0x00, 0x01, 0x00, 0x00, 0x00, 0x04, 0x00, 0x00, 0x00,
  0xe6, 0xe7, 0xff, 0xff, 0x04, 0x00, 0x00, 0x00, 0x0b, 0x00, 0x00, 0x00,
  0x64, 0x65, 0x6e, 0x73, 0x65, 0x5f, 0x69, 0x6e, 0x70, 0x75, 0x74, 0x00,
  0x02, 0x00, 0x00, 0x00, 0x34, 0x00, 0x00, 0x00, 0x04, 0x00, 0x00, 0x00,
  0xdc, 0xff, 0xff, 0xff, 0x07, 0x00, 0x00, 0x00, 0x04, 0x00, 0x00, 0x00,
  0x13, 0x00, 0x00, 0x00, 0x43, 0x4f, 0x4e, 0x56, 0x45, 0x52, 0x53, 0x49,
  0x4f, 0x4e, 0x5f, 0x4d, 0x45, 0x54, 0x41, 0x44, 0x41, 0x54, 0x41, 0x00,
  0x08, 0x00, 0x0c, 0x00, 0x08, 0x00, 0x04, 0x00, 0x08, 0x00, 0x00, 0x00,
  0x06, 0x00, 0x00, 0x00, 0x04, 0x00, 0x00, 0x00, 0x13, 0x00, 0x00, 0x00,
  0x6d, 0x69, 0x6e, 0x5f, 0x72, 0x75, 0x6e, 0x74, 0x69, 0x6d, 0x65, 0x5f,
  0x76, 0x65, 0x72, 0x73, 0x69, 0x6f, 0x6e, 0x00, 0x08, 0x00, 0x00, 0x00,
  0x18, 0x17, 0x00, 0x00, 0x10, 0x17, 0x00, 0x00, 0xf8, 0x16, 0x00, 0x00,
  0x98, 0x00, 0x00, 0x00, 0x90, 0x00, 0x00, 0x00, 0x88, 0x00, 0x00, 0x00,
  0x68, 0x00, 0x00, 0x00, 0x04, 0x00, 0x00, 0x00, 0x7e, 0xe8, 0xff, 0xff,
  0x04, 0x00, 0x00, 0x00, 0x54, 0x00, 0x00, 0x00, 0x0c, 0x00, 0x00, 0x00,
  0x08, 0x00, 0x0e, 0x00, 0x08, 0x00, 0x04, 0x00, 0x08, 0x00, 0x00, 0x00,
  0x10, 0x00, 0x00, 0x00, 0x24, 0x00, 0x00, 0x00, 0x00, 0x00, 0x06, 0x00,
  0x08, 0x00, 0x04, 0x00, 0x06, 0x00, 0x00, 0x00, 0x04, 0x00, 0x00, 0x00,
  0x00, 0x00, 0x00, 0x00, 0x00, 0x00, 0x0a, 0x00, 0x10, 0x00, 0x0c, 0x00,
  0x08, 0x00, 0x04, 0x00, 0x0a, 0x00, 0x00, 0x00, 0x02, 0x00, 0x00, 0x00,
  0x02, 0x00, 0x00, 0x00, 0x04, 0x00, 0x00, 0x00, 0x06, 0x00, 0x00, 0x00,
  0x32, 0x2e, 0x31, 0x35, 0x2e, 0x30, 0x00, 0x00, 0xde, 0xe8, 0xff, 0xff,
  0x04, 0x00, 0x00, 0x00, 0x10, 0x00, 0x00, 0x00, 0x31, 0x2e, 0x35, 0x2e,
  0x30, 0x00, 0x00, 0x00, 0x00, 0x00, 0x00, 0x00, 0x00, 0x00, 0x00, 0x00,
  0xc0, 0xe6, 0xff, 0xff, 0xc4, 0xe6, 0xff, 0xff, 0x02, 0xe9, 0xff, 0xff,
  0x04, 0x00, 0x00, 0x00, 0x50, 0x16, 0x00, 0x00, 0x56, 0xc4, 0x08, 0x3e,
  0x38, 0xde, 0x96, 0x3e, 0xb6, 0x67, 0xcd, 0xbe, 0x17, 0xbe, 0x3d, 0x3d,
  0x6a, 0x96, 0x9a, 0xbd, 0x7c, 0x94, 0x8c, 0x3c, 0x66, 0x0d, 0x9b, 0x3c,
  0x80, 0xbf, 0x7a, 0x3e, 0xe7, 0xcc, 0xa9, 0xbe, 0xf8, 0x54, 0x7e, 0x3d,
  0xb4, 0x46, 0xf7, 0xbd, 0x09, 0x5d, 0x6e, 0x3d, 0x02, 0x31, 0xca, 0x3d,
  0xd9, 0x46, 0xb9, 0x3d, 0xdb, 0x6b, 0x83, 0xbe, 0x36, 0x2b, 0xdb, 0x3c,
  0x51, 0xa5, 0x28, 0xbc, 0x90, 0x8a, 0x2c, 0xbd, 0x38, 0x9c, 0x28, 0x3e,
  0x1c, 0xf2, 0xe6, 0x3d, 0x5f, 0x3a, 0xba, 0xbe, 0x1b, 0x20, 0x2a, 0xbd,
  0x9c, 0xdf, 0x0b, 0xbe, 0x4e, 0x2c, 0x42, 0xbc, 0xc7, 0x06, 0xf3, 0x3d,
  0xad, 0x4a, 0x8c, 0x3e, 0xf5, 0xc1, 0x59, 0xbe, 0xc5, 0xbc, 0x2a, 0xbc,
  0x9f, 0x6a, 0x63, 0xbd, 0x0f, 0xc0, 0xc5, 0x3d, 0x40, 0x90, 0xc8, 0x3d,
  0x2a, 0xd1, 0x7d, 0x3e, 0x86, 0x3f, 0x79, 0xbe, 0x72, 0x38, 0x3e, 0x3d,
  0x37, 0x5e, 0x35, 0xbc, 0x65, 0xc5, 0xe7, 0xbc, 0xd6, 0x33, 0xd3, 0x3d,
  0x2b, 0x00, 0x29, 0x3e, 0x44, 0x1e, 0x6b, 0xbe, 0x6f, 0x79, 0xe3, 0xbd,
  0x51, 0x8a, 0x24, 0xbd, 0x5c, 0x1c, 0xbc, 0x3c, 0xa6, 0x11, 0xee, 0x3d,
  0x92, 0xa1, 0xfc, 0x3d, 0x8b, 0xfc, 0x4d, 0xbe, 0xa9, 0xfd, 0xda, 0xbc,
  0xfd, 0x83, 0x4e, 0x3c, 0x32, 0x2c, 0x55, 0xbc, 0xf6, 0x02, 0x55, 0x3e,
  0x16, 0x06, 0x45, 0x3e, 0xac, 0x4c, 0x91, 0xbe, 0x00, 0x82, 0x89, 0xbc,
  0x4f, 0xf2, 0x86, 0xbd, 0x9d, 0xbd, 0x93, 0x3d, 0xdc, 0x66, 0xd6, 0x3d,
  0xaa, 0xb7, 0x96, 0x3e, 0x19, 0x03, 0x5f, 0xbe, 0xae, 0x7a, 0xd0, 0x3c,
  0x6f, 0x91, 0x2d, 0xbd, 0x96, 0xa9, 0xec, 0xbc, 0x65, 0x9c, 0xc5, 0x3d,
  0x26, 0x1e, 0x4e, 0x3e, 0x4f, 0x82, 0x3e, 0xbe, 0xe2, 0x47, 0x4c, 0xbc,
  0x6f, 0x09, 0xac, 0xbd, 0xab, 0xf0, 0x74, 0x3d, 0x76, 0xc0, 0xcc, 0x3d,
  0x51, 0x8e, 0x25, 0x3e, 0x1e, 0x44, 0xb6, 0xbe, 0xee, 0x22, 0xf9, 0xbd,
  0xa7, 0xfd, 0x49, 0x3d, 0xee, 0x7c, 0x47, 0xbd, 0x2e, 0xf7, 0x22, 0x3d,
  0xd8, 0x5c, 0x91, 0x3e, 0xa7, 0x82, 0xb1, 0xbe, 0x8e, 0x36, 0xdc, 0xbc,
  0x87, 0x82, 0xfb, 0xbd, 0xd6, 0xc0, 0xff, 0x3c, 0x39, 0x3f, 0x21, 0x3e,
  0x93, 0x90, 0x8f, 0x3e, 0x10, 0xc1, 0xac, 0xbe, 0x54, 0x51, 0x20, 0xbe,
  0x2a, 0x12, 0xb7, 0xbd, 0xba, 0x9b, 0x44, 0xbb, 0x92, 0x02, 0x23, 0x3e,
  0x86, 0x52, 0x88, 0x3e, 0xf5, 0x96, 0xa8, 0xbe, 0x7e, 0x02, 0xf8, 0xbd,
  0x45, 0x37, 0x0a, 0xbd, 0xb2, 0x55, 0xb0, 0x3c, 0x33, 0xad, 0xff, 0x3d,
  0x1a, 0x91, 0xb3, 0x3e, 0x6c, 0xee, 0x83, 0xbe, 0x6d, 0xa3, 0x02, 0xbe,
  0x46, 0x46, 0x68, 0xbd, 0xed, 0x45, 0xc0, 0xbd, 0x0b, 0x24, 0x22, 0x3e,
  0x8e, 0xca, 0xac, 0x3e, 0x21, 0xc0, 0x63, 0xbe, 0x4f, 0x3b, 0x92, 0xbd,
  0xdb, 0xbf, 0x57, 0xbd, 0x7b, 0xcb, 0x3d, 0x3d, 0x20, 0xa4, 0xed, 0x3d,
  0xe3, 0x9b, 0x4e, 0x3e, 0x85, 0x3f, 0x7e, 0xbe, 0x33, 0x56, 0x1e, 0xbe,
  0x72, 0xe4, 0x10, 0xbd, 0x90, 0xf3, 0xd1, 0xbb, 0x36, 0xeb, 0xb7, 0x3d,
  0xd4, 0x81, 0x8d, 0x3e, 0x78, 0x84, 0x78, 0xbe, 0x32, 0xe9, 0x0f, 0xbe,
  0xe2, 0x93, 0xd6, 0xbd, 0xb3, 0xa8, 0xea, 0xbd, 0x15, 0xf2, 0x47, 0x3e,
  0x0d, 0x16, 0x9f, 0x3e, 0xa2, 0xbc, 0x64, 0xbe, 0x67, 0x66, 0xdc, 0xbd,
  0x96, 0x00, 0xa4, 0xbd, 0xc2, 0xbb, 0x16, 0xbd, 0x6f, 0xbf, 0xc9, 0x3d,
  0x2f, 0xca, 0x79, 0x3e, 0xde, 0xf0, 0x97, 0xbe, 0xe9, 0xa0, 0x86, 0xbd,
  0x63, 0xa6, 0x41, 0xbc, 0x72, 0x4c, 0x07, 0xbc, 0xef, 0xdf, 0x1d, 0x3e,
  0xb9, 0x3e, 0xab, 0x3e, 0x7e, 0x78, 0xba, 0xbe, 0x0b, 0xda, 0x0d, 0xbd,
  0xf9, 0xac, 0x86, 0x3c, 0x9b, 0x85, 0xaf, 0xbd, 0xfa, 0x04, 0x5f, 0x3e,
  0x28, 0x47, 0x6b, 0x3e, 0xf5, 0x5e, 0xb9, 0xbe, 0x9c, 0x03, 0x63, 0xbd,
  0x9a, 0x89, 0xe2, 0x3b, 0x44, 0x58, 0xdc, 0xbd, 0xb6, 0x95, 0x73, 0x3e,
  0x67, 0x37, 0x78, 0x3e, 0xb3, 0x72, 0xb1, 0xbe, 0x9a, 0xda, 0xcf, 0xbd,
  0x71, 0x5a, 0xd7, 0xbd, 0xa5, 0xe0, 0x9d, 0xbd, 0x70, 0xf0, 0x4c, 0x3e,
  0x06, 0x87, 0x19, 0x3e, 0xf1, 0x8b, 0x87, 0xbe, 0x07, 0x22, 0x21, 0xbe,
  0xa8, 0x7a, 0x8e, 0xbd, 0xb0, 0x98, 0x11, 0xbe, 0x4c, 0xc1, 0x20, 0x3e,
  0xf9, 0x21, 0x61, 0x3e, 0x0d, 0xc0, 0x4c, 0xbe, 0x1c, 0x38, 0x7b, 0xbe,
  0xb0, 0x5e, 0x61, 0xbb, 0x5f, 0xeb, 0x7a, 0xbd, 0xe2, 0xcc, 0x4e, 0x3e,
  0x09, 0x6a, 0x45, 0x3e, 0x80, 0xb6, 0x92, 0xbe, 0xfb, 0x37, 0x09, 0xbe,
  0x7d, 0xa3, 0x12, 0xbd, 0x1a, 0x1c, 0x03, 0xbc, 0x21, 0x48, 0x07, 0x3e,
  0x8b, 0xc0, 0x66, 0x3e, 0x3c, 0x04, 0x73, 0xbe, 0x65, 0x7a, 0x7f, 0xbe,
  0xc6, 0x8c, 0x32, 0xbd, 0xfc, 0x3d, 0x97, 0xbd, 0x4e, 0x86, 0x02, 0x3e,
  0x20, 0xc1, 0xb1, 0x3e, 0xec, 0x00, 0x33, 0xbe, 0x7c, 0x3c, 0x88, 0xbe,
  0x44, 0x6d, 0x1d, 0x3d, 0x68, 0x9d, 0xfb, 0xbd, 0x5c, 0x0b, 0xa4, 0x3d,
  0x26, 0x3f, 0xb0, 0x3e, 0x53, 0x85, 0x14, 0xbe, 0x07, 0x4f, 0x87, 0xbe,
  0xf8, 0xae, 0x7e, 0x3d, 0x1c, 0x30, 0x0f, 0xbe, 0x0e, 0xec, 0x0e, 0x3d,
  0xfd, 0xaa, 0x9a, 0x3e, 0x5f, 0x54, 0x65, 0xbd, 0x27, 0x1d, 0xb0, 0xbe,
  0x62, 0x57, 0xfd, 0xbb, 0x1d, 0xb7, 0x08, 0xbe, 0x12, 0xd4, 0x24, 0x3e,
  0xa4, 0x43, 0x84, 0x3e, 0x88, 0xe5, 0x17, 0xbe, 0xae, 0xf7, 0xc2, 0xbe,
  0xa6, 0x71, 0x58, 0x3d, 0x5f, 0x25, 0x2f, 0xbe, 0x9e, 0xd0, 0x02, 0x3e,
  0xf5, 0x03, 0xb6, 0x3e, 0x9d, 0xf4, 0x2e, 0xbb, 0x83, 0xef, 0xd1, 0xbe,
  0x07, 0xf4, 0xe8, 0x3d, 0x79, 0x68, 0x1e, 0xbe, 0x7d, 0x8a, 0x21, 0x3e,
  0xf5, 0x4f, 0x95, 0x3e, 0xd0, 0xd7, 0x90, 0x3b, 0xdb, 0xdf, 0xc7, 0xbe,
  0x30, 0x32, 0x0c, 0x3d, 0xca, 0xc7, 0x04, 0xbe, 0x66, 0x9d, 0x1b, 0x3e,
  0x99, 0x10, 0xb5, 0x3e, 0xd4, 0x42, 0x96, 0xbc, 0x45, 0x6b, 0xd9, 0xbe,
  0xc8, 0x65, 0x36, 0x3e, 0x96, 0x66, 0x9e, 0xbd, 0x42, 0x12, 0x2b, 0x3e,
  0x72, 0xac, 0xe1, 0x3e, 0x9a, 0x9a, 0x84, 0x3a, 0xdf, 0xa9, 0xb5, 0xbe,
  0xe6, 0x6d, 0xc9, 0x3d, 0x81, 0x79, 0x3d, 0xbe, 0xd3, 0xd2, 0x3d, 0x3e,
  0xe5, 0x4b, 0xbb, 0x3e, 0x62, 0xfd, 0x1c, 0xbd, 0x60, 0xd9, 0xf9, 0xbe,
  0x7a, 0x61, 0xe7, 0x3d, 0x30, 0xe8, 0x73, 0xbd, 0x85, 0xf3, 0xd2, 0x3d,
  0xfa, 0x8c, 0xc7, 0x3e, 0xdb, 0x52, 0x9a, 0x3d, 0xbc, 0x72, 0xcb, 0xbe,
  0xfe, 0x09, 0xf5, 0x3d, 0x0f, 0x20, 0x51, 0xbe, 0xd3, 0x63, 0xb0, 0x3d,
  0x3f, 0x41, 0xb7, 0x3e, 0x86, 0x38, 0x17, 0x3e, 0xed, 0x75, 0xe9, 0xbe,
  0x84, 0x05, 0x5a, 0x3e, 0xeb, 0xb8, 0x98, 0xbd, 0x9a, 0x47, 0x5f, 0x3e,
  0xb6, 0xd0, 0x0f, 0x3f, 0xb7, 0x14, 0x0d, 0x3c, 0x79, 0x44, 0xc2, 0xbe,
  0x20, 0xcf, 0x39, 0x3e, 0x24, 0xa8, 0x78, 0xbe, 0x0c, 0x40, 0x4b, 0x3e,
  0x66, 0x84, 0xde, 0x3e, 0x41, 0xff, 0x68, 0x3d, 0x4a, 0x63, 0xe7, 0xbe,
  0x3c, 0x31, 0xe9, 0x3d, 0xd3, 0xde, 0x46, 0xbe, 0x6c, 0xd4, 0x2d, 0x3e,
  0x2a, 0x52, 0x0d, 0x3f, 0x5b, 0x75, 0xa6, 0x3d, 0x82, 0x20, 0xec, 0xbe,
  0xd7, 0x3f, 0xe8, 0x3d, 0xf4, 0x96, 0x72, 0xbe, 0x15, 0x20, 0x84, 0x3e,
  0x9d, 0xdc, 0x0e, 0x3f, 0xf6, 0x76, 0x44, 0x3d, 0x67, 0x31, 0xf6, 0xbe,
  0xb9, 0x16, 0x6d, 0x3e, 0x3e, 0x16, 0x74, 0xbe, 0xdd, 0x13, 0x66, 0x3e,
  0xf5, 0xd3, 0x1a, 0x3f, 0x40, 0x47, 0x24, 0x3e, 0xb7, 0x51, 0x02, 0xbf,
  0x92, 0x3e, 0x52, 0x3e, 0xf2, 0x49, 0xc6, 0xbd, 0xd8, 0xd0, 0x96, 0x3e,
  0x86, 0x30, 0x22, 0x3f, 0x2c, 0xc8, 0x3b, 0x3e, 0x9b, 0x41, 0xd2, 0xbe,
  0x2d, 0x8f, 0x9d, 0x3e, 0x55, 0x41, 0xca, 0xbd, 0xd8, 0xe2, 0xaf, 0x3e,
  0xf7, 0x18, 0x1a, 0x3f, 0x11, 0x03, 0x5a, 0x3e, 0xb5, 0x4a, 0xe8, 0xbe,
  0x31, 0xb1, 0x51, 0x3e, 0x91, 0x13, 0x3d, 0xbe, 0x8d, 0xa9, 0xb9, 0x3e,
  0x56, 0x64, 0x35, 0x3f, 0x29, 0x59, 0x55, 0x3e, 0xec, 0x76, 0xf1, 0xbe,
  0xb1, 0x4d, 0xa0, 0x3e, 0xaa, 0x17, 0x91, 0xbe, 0x14, 0x9a, 0xc6, 0x3e,
  0x00, 0x68, 0x1c, 0x3f, 0xa8, 0xe7, 0x37, 0x3e, 0xa8, 0x55, 0xf2, 0xbe,
  0x1f, 0xca, 0x94, 0x3e, 0xce, 0xc0, 0x09, 0xbe, 0x0a, 0x58, 0x94, 0x3e,
  0x90, 0x7b, 0x24, 0x3f, 0x2f, 0xe6, 0x28, 0x3e, 0xe7, 0x5f, 0x03, 0xbf,
  0x3b, 0x44, 0xa3, 0x3e, 0x1a, 0x1b, 0x87, 0xbe, 0x20, 0xe1, 0x65, 0x3e,
  0x12, 0x0f, 0x2d, 0x3f, 0xde, 0x05, 0x84, 0x3e, 0x28, 0x0b, 0xeb, 0xbe,
  0x24, 0x70, 0x85, 0x3e, 0xd0, 0xe6, 0x24, 0xbe, 0xb2, 0xe1, 0x6a, 0x3e,
  0x81, 0x4a, 0x44, 0x3f, 0x9e, 0x5a, 0x83, 0x3e, 0x8d, 0xbd, 0xe7, 0xbe,
  0x57, 0x14, 0x37, 0x3e, 0xd6, 0x8d, 0x8a, 0xbe, 0x5d, 0xdb, 0x8b, 0x3e,
  0x99, 0xbf, 0x26, 0x3f, 0x16, 0xfb, 0x8b, 0x3e, 0x35, 0x6a, 0x94, 0xbe,
  0xeb, 0xc3, 0xaf, 0x3e, 0x0b, 0xab, 0x3b, 0xbe, 0xf3, 0x25, 0x90, 0x3e,
  0x1d, 0xa9, 0x21, 0x3f, 0x56, 0x18, 0x58, 0x3e, 0x82, 0xc3, 0xd7, 0xbe,
  0xcc, 0xdf, 0x7c, 0x3e, 0x67, 0x4b, 0x1d, 0xbe, 0x85, 0xca, 0xb1, 0x3e,
  0x88, 0xa2, 0xfa, 0x3e, 0xa0, 0xf6, 0x6d, 0x3e, 0xe7, 0xa9, 0xbf, 0xbe,
  0x79, 0x33, 0x72, 0x3e, 0x8b, 0x3b, 0x4c, 0xbe, 0x4f, 0x9a, 0x4b, 0x3e,
  0xb2, 0x39, 0x03, 0x3f, 0x56, 0x35, 0x9a, 0x3e, 0x96, 0x22, 0xa5, 0xbe,
  0xcd, 0x60, 0x52, 0x3e, 0x88, 0x44, 0x91, 0xbe, 0x13, 0x70, 0x6b, 0x3e,
  0x32, 0x36, 0xc8, 0x3e, 0xbc, 0xc8, 0x67, 0x3e, 0x54, 0x9f, 0xbc, 0xbe,
  0x05, 0x38, 0xa7, 0x3e, 0x0f, 0xf4, 0xa0, 0xbe, 0xb4, 0x4c, 0x58, 0x3e,
  0x96, 0x0b, 0xf9, 0x3e, 0x9c, 0xfb, 0xbd, 0x3e, 0x54, 0xb3, 0x8b, 0xbe,
  0x20, 0x95, 0x75, 0x3e, 0xc3, 0xbe, 0x8b, 0xbe, 0xcf, 0xf7, 0x81, 0x3e,
  0xe0, 0x35, 0xd8, 0x3e, 0x54, 0xc8, 0xa1, 0x3e, 0x1d, 0x0f, 0xa9, 0xbe,
  0xce, 0xd6, 0x6d, 0x3e, 0xcf, 0xa8, 0xb7, 0xbe, 0xae, 0x9b, 0x1f, 0x3e,
  0x0f, 0x6a, 0xa5, 0x3e, 0x92, 0x8c, 0x62, 0x3e, 0xd1, 0x68, 0x4f, 0xbe,
  0x43, 0x5f, 0x5d, 0x3e, 0xf0, 0xbb, 0x37, 0xbe, 0x96, 0x88, 0x10, 0x3e,
  0x21, 0xa9, 0x81, 0x3e, 0x66, 0x72, 0xbf, 0x3e, 0xaf, 0x89, 0x0e, 0xbe,
  0x6f, 0x0b, 0x8e, 0x3e, 0x9e, 0x9a, 0x9d, 0xbe, 0x65, 0xb5, 0x73, 0x3e,
  0x79, 0x9c, 0x18, 0x3e, 0xbb, 0xa4, 0xb7, 0x3e, 0x09, 0x9a, 0x1a, 0xbe,
  0x90, 0xe2, 0x3f, 0x3e, 0x1f, 0xc3, 0x5a, 0xbe, 0x93, 0x76, 0x36, 0x3e,
  0xd7, 0x05, 0x92, 0x3d, 0xef, 0xba, 0x80, 0x3e, 0xd2, 0x3f, 0x28, 0xbe,
  0xe3, 0xaf, 0x1d, 0x3e, 0xca, 0x69, 0x89, 0xbe, 0x2e, 0xd0, 0x9f, 0x3d,
  0x31, 0xd1, 0xaf, 0x3d, 0x04, 0x6c, 0x86, 0x3e, 0xe0, 0xda, 0x20, 0xbe,
  0xba, 0x85, 0x35, 0x3e, 0xb6, 0x5f, 0x0a, 0xbe, 0x39, 0x87, 0x1b, 0x3e,
  0x1e, 0x6a, 0xea, 0x3d, 0xb8, 0x30, 0x91, 0x3e, 0xed, 0xa7, 0x33, 0xbe,
  0x09, 0x87, 0x19, 0x3e, 0x1c, 0xcb, 0x97, 0xbe, 0x2d, 0xdc, 0xc8, 0x3d,
  0x5c, 0x14, 0x26, 0x3e, 0x50, 0x4a, 0x92, 0x3e, 0x9a, 0x02, 0x2b, 0xbe,
  0xf8, 0xc8, 0x86, 0x3e, 0x33, 0x77, 0x15, 0xbe, 0x88, 0xfd, 0xe2, 0x3d,
  0x11, 0xa4, 0x24, 0x3e, 0x55, 0xc7, 0x7f, 0x3e, 0x1f, 0x33, 0x75, 0xbe,
  0xee, 0x4d, 0x72, 0x3e, 0xfe, 0xcf, 0x41, 0xbe, 0xf4, 0xe4, 0x2e, 0x3e,
  0xda, 0xbf, 0xba, 0x3d, 0xde, 0xf2, 0xc0, 0x3e, 0x85, 0xd4, 0x48, 0xbe,
  0x12, 0x97, 0x25, 0x3e, 0xc8, 0xc7, 0x15, 0xbe, 0xbb, 0x2b, 0x59, 0x3d,
  0x17, 0x34, 0x2b, 0x3e, 0x7d, 0xf3, 0x8d, 0x3e, 0x38, 0x41, 0xa2, 0xbd,
  0x41, 0x83, 0x49, 0x3e, 0x11, 0x0c, 0x05, 0xbe, 0xe4, 0xcc, 0xce, 0x3d,
  0x38, 0xda, 0xdf, 0x3d, 0xbd, 0xf7, 0xa4, 0x3e, 0xf4, 0xb0, 0x58, 0xbe,
  0x2a, 0xe8, 0x32, 0x3e, 0x7c, 0x85, 0x1d, 0xbe, 0xec, 0x9a, 0x25, 0x3d,
  0xc1, 0x07, 0x74, 0x3c, 0x50, 0xf7, 0x4c, 0x3e, 0x28, 0x89, 0x73, 0xbe,
  0x2b, 0xfc, 0x2d, 0x3e, 0x25, 0x02, 0x74, 0xbe, 0x11, 0xc3, 0xd4, 0x3d,
  0x6f, 0xb1, 0xa0, 0x3d, 0xd7, 0xa0, 0x9c, 0x3e, 0x74, 0xe7, 0xb4, 0xbd,
  0x3e, 0xf3, 0x89, 0x3e, 0xec, 0xd7, 0x35, 0xbe, 0xa0, 0xcb, 0x34, 0x3c,
  0x57, 0x1f, 0x9e, 0x3d, 0xcc, 0x7a, 0x02, 0x3e, 0xf7, 0x74, 0x44, 0xbe,
  0xdf, 0xff, 0x48, 0x3e, 0x16, 0xa9, 0x70, 0xbe, 0xa9, 0x80, 0xdc, 0x3d,
  0xf7, 0xac, 0x8a, 0xbc, 0xa2, 0xbd, 0x57, 0x3e, 0xbd, 0x41, 0x21, 0xbe,
  0xeb, 0xad, 0x26, 0x3e, 0x36, 0x8f, 0x6c, 0xbe, 0xe7, 0x69, 0x88, 0x3d,
  0xd8, 0xc9, 0x15, 0x3e, 0x65, 0xef, 0x1b, 0x3e, 0x04, 0x82, 0x19, 0xbe,
  0xbd, 0x95, 0x0b, 0x3e, 0xc3, 0x2e, 0x16, 0xbe, 0x1c, 0x4a, 0x3f, 0xbd,
  0xd3, 0xea, 0xd3, 0x3d, 0xd6, 0x25, 0x61, 0x3e, 0xf6, 0xb0, 0xcd, 0xbd,
  0x71, 0xf4, 0x0e, 0x3e, 0xd9, 0xf4, 0x23, 0xbe, 0xd0, 0xb2, 0x86, 0x3d,
  0xa8, 0xb7, 0x1c, 0x3e, 0x2c, 0xfa, 0x39, 0x3e, 0x44, 0x40, 0xa0, 0xbd,
  0x3b, 0x91, 0x0d, 0x3e, 0x4e, 0x09, 0x34, 0xbe, 0x40, 0xab, 0xbe, 0x3d,
  0x42, 0x45, 0x1a, 0x3d, 0x9d, 0xf4, 0x31, 0x3e, 0xe3, 0xb0, 0x04, 0xbe,
  0xdd, 0x28, 0x77, 0x3e, 0xf4, 0x76, 0x2a, 0xbe, 0x81, 0xe1, 0x24, 0xbc,
  0x20, 0xfe, 0xce, 0x3d, 0x77, 0xbf, 0x7e, 0x3d, 0x27, 0xea, 0x2e, 0xbe,
  0x67, 0x0e, 0x33, 0x3e, 0x9e, 0x39, 0x32, 0xbe, 0xe0, 0xfe, 0xf6, 0x3d,
  0x62, 0x21, 0x11, 0x3e, 0xe2, 0xc6, 0xc7, 0x3d, 0x3b, 0x11, 0x96, 0xbd,
  0xe4, 0xa1, 0xad, 0x3d, 0x0b, 0xfd, 0x0a, 0xbe, 0x19, 0x71, 0xc0, 0x3c,
  0x11, 0x03, 0xbe, 0x3d, 0x36, 0x46, 0x8d, 0x3d, 0x92, 0x51, 0xb3, 0xbd,
  0x48, 0x3b, 0xea, 0x3d, 0x07, 0x02, 0x37, 0xbe, 0x0a, 0x62, 0xa3, 0x3d,
  0x5f, 0x87, 0xe9, 0x3d, 0x48, 0x7e, 0x8e, 0xbc, 0x81, 0x5c, 0x09, 0xbb,
  0x74, 0xa4, 0xdb, 0x3d, 0xd0, 0x04, 0x4f, 0xbe, 0x9e, 0x6e, 0xb8, 0x3d,
  0x53, 0x42, 0xaf, 0x3d, 0x6f, 0xc6, 0xfa, 0xbc, 0x4c, 0x2d, 0xae, 0xbd,
  0xa7, 0x51, 0xbb, 0x3c, 0x87, 0x10, 0x4e, 0xbe, 0x33, 0x3c, 0xae, 0x3d,
  0x92, 0xc9, 0x2c, 0xbd, 0x03, 0xdc, 0xe6, 0x3d, 0xe8, 0x8a, 0x01, 0xbe,
  0xd0, 0x11, 0x37, 0x3e, 0xc4, 0x3b, 0x9f, 0xbd, 0xcf, 0x35, 0x94, 0x3d,
  0xcc, 0x91, 0x09, 0x3c, 0xfe, 0x5e, 0xa4, 0x3c, 0xde, 0x2f, 0xe6, 0xbd,
  0xe7, 0x32, 0x2b, 0x3e, 0x3e, 0xb0, 0xec, 0xbd, 0xf9, 0x4c, 0x9a, 0xbd,
  0x82, 0x1c, 0x60, 0x3d, 0x76, 0x79, 0xe5, 0x3c, 0xcd, 0xc5, 0x47, 0xbd,
  0x5d, 0x44, 0x1a, 0x3d, 0x91, 0x18, 0xa8, 0xbd, 0x5c, 0x88, 0x95, 0x3d,
  0x96, 0xc0, 0xe9, 0xbd, 0xcd, 0x88, 0xb0, 0x3d, 0x59, 0x72, 0x5b, 0xbd,
  0xe3, 0xa8, 0xec, 0x3c, 0x49, 0xdb, 0x3d, 0xbd, 0xa5, 0xe1, 0x15, 0xbd,
  0x0d, 0x19, 0x08, 0xbe, 0xbc, 0x7f, 0x59, 0x3d, 0x15, 0xa2, 0x16, 0xbc,
  0xf2, 0x6f, 0x1e, 0x3d, 0x8f, 0xa2, 0x16, 0xbe, 0x12, 0xcb, 0x29, 0x3d,
  0xe7, 0x95, 0x9f, 0xbd, 0xcf, 0xaa, 0x84, 0xbd, 0xa5, 0xc1, 0xe3, 0xbc,
  0xca, 0x78, 0x73, 0x3d, 0x63, 0x23, 0xb2, 0xbd, 0x6e, 0xe9, 0x46, 0xbd,
  0x40, 0xb6, 0x2f, 0xbe, 0x76, 0xd8, 0x30, 0x3d, 0x6e, 0xea, 0x95, 0xbd,
  0x53, 0x0e, 0xf2, 0x3d, 0x77, 0xb3, 0xec, 0xbd, 0x58, 0xbf, 0xd6, 0xbd,
  0xbd, 0x6f, 0x88, 0xbd, 0x04, 0xac, 0x29, 0xbd, 0x29, 0x52, 0xb8, 0xbd,
  0x4c, 0x3f, 0x3a, 0xbc, 0x2a, 0xcd, 0xd4, 0xbd, 0x29, 0x30, 0x82, 0x3c,
  0x1a, 0x9c, 0x2a, 0xbe, 0x78, 0x0e, 0x7a, 0xbd, 0xdf, 0xc3, 0x52, 0xbd,
  0x72, 0xce, 0x49, 0xbc, 0x92, 0x83, 0x2c, 0xbe, 0x5c, 0xb9, 0xd3, 0xbc,
  0x76, 0xc9, 0x1b, 0xbd, 0x8c, 0xf0, 0xb4, 0xbb, 0x70, 0x33, 0x05, 0xbe,
  0x9d, 0x0c, 0x36, 0x3b, 0x16, 0x3b, 0x4c, 0xbd, 0x0f, 0x39, 0x0f, 0xbe,
  0x2d, 0xed, 0x02, 0xbe, 0x6e, 0xa8, 0x03, 0xbc, 0x24, 0x46, 0xed, 0xbd,
  0xdb, 0x60, 0xb6, 0x3d, 0x00, 0xc7, 0x1c, 0xbe, 0x2c, 0xa6, 0x5d, 0xbd,
  0x25, 0x7e, 0x32, 0xbd, 0x2c, 0xe0, 0x37, 0xbd, 0xf2, 0xaa, 0x8b, 0xbd,
  0xa1, 0x0e, 0x97, 0xbd, 0xaf, 0xf7, 0x37, 0xbe, 0xbd, 0x51, 0x07, 0xbe,
  0x94, 0x06, 0x86, 0xbc, 0xfe, 0xec, 0x9b, 0xbd, 0x52, 0x0c, 0x08, 0xbe,
  0x11, 0x8b, 0xa2, 0x3d, 0x0c, 0xea, 0x01, 0xbe, 0x98, 0x09, 0x29, 0xbe,
  0x1a, 0x8b, 0x2b, 0xbe, 0x5d, 0xea, 0x8a, 0x3d, 0xe8, 0x1f, 0x0b, 0x3d,
  0x7a, 0x5b, 0x76, 0x3c, 0xe8, 0x0c, 0x15, 0xbe, 0x08, 0xf3, 0xf8, 0xbd,
  0x5d, 0x09, 0x0e, 0xbe, 0x00, 0x93, 0x13, 0x3d, 0xd7, 0xa1, 0x05, 0xbd,
  0x82, 0x31, 0x87, 0xbc, 0xfe, 0x01, 0x58, 0xbd, 0xf9, 0x15, 0x2d, 0xbe,
  0x69, 0x78, 0x5d, 0xbd, 0x4b, 0x29, 0x27, 0x3c, 0x42, 0xaa, 0xf1, 0xbd,
  0xc8, 0x47, 0x8a, 0x3d, 0x50, 0xda, 0x14, 0xbe, 0x57, 0x58, 0x1d, 0xbe,
  0x1c, 0xde, 0xae, 0xbd, 0x20, 0x98, 0x94, 0xbc, 0x71, 0xf8, 0x1c, 0xbd,
  0x6e, 0xcd, 0xb7, 0x3c, 0x62, 0x4c, 0x0e, 0xbe, 0xbe, 0xd8, 0x02, 0xbe,
  0xbd, 0xdb, 0x7f, 0xbc, 0x52, 0xfb, 0x9a, 0x3c, 0x24, 0xbd, 0xed, 0xbc,
  0x52, 0x0e, 0x93, 0xbd, 0x1b, 0xc5, 0x81, 0xbd, 0x7f, 0x13, 0x37, 0xbe,
  0x33, 0x8d, 0x83, 0xbc, 0x49, 0x19, 0xe0, 0x3c, 0x98, 0x7a, 0x1b, 0xbe,
  0x12, 0x47, 0x1a, 0xbc, 0x00, 0x34, 0x30, 0xbe, 0xf5, 0x3c, 0x4e, 0xbe,
  0xbd, 0x7f, 0x29, 0x3c, 0x55, 0xa5, 0xca, 0x3d, 0xaa, 0xbe, 0xb9, 0xbd,
  0x67, 0x88, 0xa6, 0xbb, 0x49, 0x65, 0xba, 0xbd, 0x37, 0x91, 0x51, 0xbe,
  0xed, 0xdc, 0x3f, 0xbd, 0xd6, 0xb0, 0xf1, 0x3d, 0x76, 0x54, 0x85, 0xbd,
  0x0e, 0x3a, 0x9f, 0xbd, 0xbc, 0x77, 0x1b, 0xbe, 0xfe, 0x47, 0x65, 0xbe,
  0xf3, 0xbc, 0x01, 0xbe, 0xc0, 0xe5, 0x4f, 0x3d, 0x2d, 0x04, 0xfe, 0xbd,
  0xda, 0x0e, 0x0a, 0x3d, 0x80, 0x09, 0xb1, 0xbd, 0x50, 0x78, 0x00, 0xbe,
  0x88, 0x43, 0x66, 0xbd, 0x42, 0xe5, 0x89, 0x3d, 0x3a, 0x2e, 0xe4, 0xbd,
  0xe8, 0x07, 0x58, 0xbc, 0x43, 0x93, 0x2d, 0xbd, 0x9f, 0x02, 0x70, 0xbe,
  0xf0, 0x59, 0x2c, 0xbd, 0xd2, 0x79, 0xdb, 0x3d, 0xfe, 0x29, 0x00, 0xbe,
  0x7c, 0xc6, 0xd4, 0xbd, 0xc2, 0xef, 0x18, 0xbe, 0x45, 0x5a, 0x74, 0xbe,
  0xa0, 0x9c, 0x41, 0x3d, 0x11, 0xe9, 0x46, 0xbb, 0xa8, 0x6b, 0x61, 0xbd,
  0xaa, 0x18, 0x6c, 0xbc, 0x44, 0xea, 0xb0, 0xbd, 0x9f, 0xb5, 0x29, 0xbe,
  0x2a, 0x71, 0x8c, 0x3d, 0x0a, 0x3e, 0x26, 0x3d, 0x78, 0x62, 0x27, 0xbd,
  0xf8, 0xc3, 0x29, 0xbb, 0x31, 0xc1, 0xb8, 0xbd, 0xb5, 0xd3, 0x3a, 0xbe,
  0x1d, 0x4e, 0x95, 0x3c, 0x4b, 0xa1, 0xaa, 0x3c, 0xa3, 0xc8, 0x3f, 0x3c,
  0x36, 0x83, 0xb3, 0xbd, 0x5f, 0x91, 0x6c, 0x3c, 0xb4, 0x20, 0x6f, 0xbe,
  0x7d, 0x12, 0x03, 0x3c, 0x53, 0xb8, 0xc7, 0xbc, 0x7d, 0xa0, 0x16, 0xbe,
  0x27, 0x87, 0x64, 0x3c, 0x4f, 0x60, 0x1d, 0xbe, 0xa4, 0x43, 0x3f, 0xbe,
  0xac, 0x6e, 0xdc, 0xbc, 0x68, 0x65, 0xae, 0xbb, 0xaa, 0x6f, 0x3a, 0x3b,
  0x82, 0xc9, 0xbf, 0xbd, 0xf8, 0x29, 0x1e, 0xbe, 0x1a, 0x37, 0x77, 0xbe,
  0x1c, 0xa7, 0xe1, 0x3d, 0xc8, 0x6d, 0x0c, 0xbd, 0x63, 0xa1, 0x1a, 0xbe,
  0x03, 0x17, 0x76, 0xbc, 0x6d, 0x18, 0xee, 0xbd, 0x6b, 0x3e, 0x47, 0xbe,
  0x78, 0xc8, 0x56, 0xbb, 0xd7, 0xbb, 0xff, 0x3d, 0x2a, 0x3b, 0x18, 0xbd,
  0x93, 0x7b, 0x1f, 0xbd, 0xbd, 0x2c, 0x14, 0xbe, 0xd2, 0x1b, 0xf7, 0xbd,
  0x38, 0x62, 0x2b, 0x3d, 0xe5, 0x1b, 0xe4, 0x3d, 0xb4, 0x1c, 0x1f, 0xbe,
  0x43, 0x3c, 0xc5, 0x3b, 0xed, 0x31, 0x68, 0xbd, 0x85, 0x6e, 0x28, 0xbe,
  0x6a, 0x9d, 0xaf, 0x3d, 0x4c, 0xa3, 0x18, 0x3d, 0x9a, 0x2d, 0x05, 0xbe,
  0x24, 0x19, 0xf1, 0xbc, 0x75, 0xa2, 0xeb, 0xbd, 0x2a, 0x08, 0x1c, 0xbe,
  0xd0, 0xc5, 0x4a, 0x3e, 0x16, 0x7b, 0xf6, 0x3d, 0x16, 0x16, 0xe3, 0xbd,
  0xb0, 0x85, 0x22, 0xbe, 0xb6, 0x10, 0xe6, 0xbd, 0xc3, 0xf7, 0xc3, 0xbd,
  0xa8, 0xc3, 0xb1, 0x3d, 0x1b, 0xd6, 0x98, 0x3d, 0xa6, 0xef, 0x6c, 0xbd,
  0xdf, 0x59, 0xbb, 0xbb, 0x6d, 0x44, 0x23, 0xbb, 0x00, 0x24, 0x7b, 0xbe,
  0xbb, 0x1d, 0x60, 0x3e, 0xd8, 0x36, 0x83, 0xbd, 0x80, 0x38, 0xaf, 0xbd,
  0x37, 0x1a, 0xbb, 0xbd, 0x8a, 0x0e, 0x14, 0xbd, 0x48, 0x3a, 0xd5, 0xbd,
  0x69, 0xe1, 0x7e, 0x3e, 0x50, 0x0d, 0xfc, 0x3b, 0xe5, 0x45, 0x01, 0xbe,
  0x3d, 0xfc, 0x5b, 0xbd, 0xa2, 0xa6, 0x91, 0xbd, 0x18, 0x79, 0x04, 0xbe,
  0xf5, 0xe9, 0x5e, 0xbe, 0x98, 0xfe, 0xb8, 0x3e, 0x86, 0x75, 0xa9, 0x3c,
  0xa1, 0x49, 0x11, 0xbd, 0xb6, 0x6b, 0x5d, 0x3d, 0x5e, 0xac, 0x10, 0xbe,
  0x30, 0xd0, 0xd5, 0xbd, 0x88, 0x70, 0x98, 0x3e, 0x5c, 0x60, 0x5b, 0xbc,
  0xec, 0x78, 0xd5, 0x3d, 0x74, 0x0f, 0xa3, 0xbd, 0xe9, 0x1c, 0xce, 0xbd,
  0x50, 0xa8, 0xb7, 0xbd, 0x42, 0xe7, 0x80, 0x3e, 0x38, 0x11, 0xf4, 0xbc,
  0x9f, 0xfd, 0x8e, 0x3d, 0xb9, 0x35, 0x28, 0xbd, 0x08, 0x21, 0xa9, 0xbd,
  0x19, 0x3a, 0x5c, 0xbe, 0x84, 0xb6, 0xa5, 0x3e, 0x6b, 0xcc, 0x08, 0x3d,
  0xe4, 0x26, 0xf6, 0x3c, 0xd4, 0x7b, 0x87, 0xbd, 0xe0, 0xc1, 0x4d, 0xbd,
  0x75, 0x72, 0x13, 0xbe, 0x8c, 0x76, 0xa9, 0x3e, 0x7e, 0x9b, 0x94, 0x3c,
  0xd7, 0xb7, 0xfd, 0xbc, 0x77, 0xce, 0xe8, 0x3c, 0xbb, 0x22, 0x13, 0xbe,
  0x5d, 0x7f, 0x7c, 0xbe, 0x9e, 0xec, 0x99, 0x3e, 0x52, 0xf4, 0xe1, 0xbc,
  0x02, 0x79, 0xfd, 0xbc, 0x47, 0x29, 0x26, 0xbd, 0x2e, 0xb9, 0xab, 0xbd,
  0x20, 0xee, 0x71, 0xbe, 0x43, 0x41, 0x97, 0x3e, 0x2b, 0xe2, 0x8c, 0x3d,
  0xd4, 0xe8, 0x01, 0x3e, 0xc6, 0x90, 0x66, 0xbd, 0x06, 0xa8, 0xc3, 0xbd,
  0x36, 0xf4, 0x1a, 0xbe, 0xe7, 0xd5, 0x43, 0x3e, 0xc7, 0x1c, 0xd4, 0x3c,
  0x86, 0x94, 0xd7, 0xbb, 0x76, 0x1e, 0x77, 0x3c, 0x24, 0x15, 0x28, 0xbe,
  0xfb, 0xe2, 0x9e, 0xbe, 0xeb, 0x60, 0x52, 0x3e, 0x2e, 0xc7, 0x01, 0x3e,
  0x42, 0x3d, 0x8f, 0x3b, 0xc4, 0x0e, 0xd7, 0xbc, 0xb9, 0x33, 0x2a, 0xbd,
  0x6c, 0x33, 0x2f, 0xbe, 0x94, 0xeb, 0x59, 0x3e, 0xbc, 0xef, 0x4b, 0x3d,
  0xb1, 0x15, 0x56, 0xbd, 0xca, 0x76, 0xe6, 0x3c, 0xdb, 0x5d, 0xbc, 0xbd,
  0x6c, 0xd9, 0x28, 0xbe, 0xe4, 0x1e, 0xba, 0x3e, 0xdc, 0xf3, 0x7b, 0x3d,
  0x8f, 0xac, 0x2e, 0xbd, 0x4b, 0x3b, 0x24, 0x3d, 0xa4, 0xec, 0x1d, 0xbe,
  0x01, 0xab, 0x15, 0xbe, 0x88, 0xec, 0x5d, 0x3e, 0x09, 0x0a, 0x64, 0x3a,
  0x4c, 0x3c, 0x88, 0x3d, 0xcf, 0x63, 0x6e, 0x3d, 0x9c, 0x0f, 0x91, 0xbd,
  0xf5, 0xe4, 0x93, 0xbe, 0x81, 0xa8, 0x3f, 0x3e, 0xe9, 0x3a, 0xe0, 0x3d,
  0xa0, 0x04, 0xc8, 0x3d, 0xc9, 0x9a, 0x13, 0x3d, 0x45, 0x28, 0x47, 0xbd,
  0x74, 0x16, 0x70, 0xbe, 0xc1, 0x0d, 0x61, 0x3e, 0xd6, 0x35, 0x17, 0x3e,
  0xcd, 0xc3, 0x3d, 0x3d, 0x38, 0x20, 0x28, 0x3d, 0x6b, 0x1b, 0x09, 0xbe,
  0x11, 0xd8, 0x76, 0xbe, 0x6b, 0x1c, 0xb6, 0x3e, 0x21, 0xee, 0x86, 0x3d,
  0x8c, 0x48, 0x64, 0x3d, 0xfd, 0x32, 0x3b, 0x3d, 0x82, 0x71, 0x59, 0xbd,
  0xc3, 0x5b, 0x67, 0xbe, 0xfd, 0x20, 0xac, 0x3e, 0xe6, 0x65, 0x3c, 0x3d,
  0x2e, 0x56, 0xbd, 0x3d, 0x05, 0x9a, 0x27, 0x3d, 0x79, 0xdf, 0xfd, 0xbd,
  0xe9, 0x5a, 0x92, 0xbe, 0xf7, 0x58, 0x9d, 0x3e, 0xa9, 0x47, 0x02, 0x3e,
  0xad, 0x51, 0x08, 0x3c, 0xd8, 0x7f, 0x5d, 0xbd, 0xba, 0xfb, 0xe1, 0xbd,
  0x02, 0x78, 0x92, 0xbe, 0x23, 0x2e, 0x41, 0x3e, 0x1a, 0xd3, 0x01, 0x3e,
  0xe6, 0x42, 0xf0, 0xbc, 0xbc, 0x2e, 0x03, 0x3e, 0x57, 0x1c, 0x50, 0xbe,
  0x88, 0xf5, 0x86, 0xbe, 0xcd, 0xff, 0xb2, 0x3e, 0x23, 0x24, 0x2c, 0x3e,
  0x25, 0x7c, 0xa8, 0xbc, 0xfc, 0x99, 0x1f, 0xbd, 0x47, 0xa2, 0x6c, 0xbe,
  0x8e, 0xd7, 0x8a, 0xbe, 0x2f, 0x4c, 0xbe, 0x3e, 0x2f, 0x15, 0x13, 0x3e,
  0x87, 0x58, 0xd5, 0xbc, 0xad, 0xe0, 0xb9, 0x3d, 0x3d, 0x20, 0xd5, 0xbd,
  0x2a, 0x6c, 0xc1, 0xbe, 0xf2, 0xf9, 0x60, 0x3e, 0x86, 0xce, 0xdb, 0x3d,
  0x0d, 0x9a, 0xba, 0xbc, 0xba, 0xb3, 0xb1, 0x3d, 0x0f, 0x6b, 0xba, 0xbd,
  0xfb, 0xe0, 0x85, 0xbe, 0xfe, 0x5d, 0x62, 0x3e, 0x8b, 0x2b, 0x0d, 0x3e,
  0x9f, 0x1e, 0xb5, 0x3c, 0x73, 0xdb, 0xd0, 0x3d, 0x38, 0x16, 0xa0, 0xbd,
  0x18, 0x2b, 0x64, 0xbe, 0x91, 0xb9, 0x96, 0x3e, 0xa7, 0x8f, 0x26, 0x3d,
  0x08, 0x3d, 0xc2, 0x3d, 0xcd, 0xc2, 0xe6, 0x3d, 0x16, 0x21, 0x20, 0xbe,
  0xa9, 0x18, 0x42, 0xbe, 0x3f, 0x91, 0x96, 0x3e, 0x9c, 0x55, 0x60, 0x3e,
  0xc2, 0xad, 0xf9, 0xbc, 0x45, 0x82, 0x33, 0x3d, 0xf7, 0xc7, 0x66, 0xbe,
  0x58, 0x54, 0x82, 0xbe, 0xf9, 0x2f, 0x4a, 0x3e, 0x50, 0xb7, 0x37, 0x3e,
  0x42, 0x23, 0x83, 0x3c, 0xb6, 0x5a, 0x02, 0x3e, 0xa0, 0xb1, 0x6a, 0xbe,
  0xe6, 0x8e, 0x30, 0xbe, 0x19, 0x48, 0x74, 0x3e, 0x53, 0xa4, 0x83, 0x3e,
  0x54, 0xdc, 0xc4, 0x3d, 0x8d, 0xd2, 0xc8, 0x3d, 0xb9, 0x1f, 0x7d, 0xbe,
  0xba, 0xf0, 0x91, 0xbe, 0x47, 0xbc, 0x65, 0x3e, 0x61, 0x4b, 0x8b, 0x3e,
  0xa9, 0x3a, 0x12, 0xbc, 0x3c, 0xfa, 0xc4, 0x3d, 0x42, 0xc7, 0x57, 0xbe,
  0x3e, 0xf4, 0xad, 0xbe, 0xa3, 0x7f, 0x13, 0x3e, 0x30, 0x51, 0x11, 0x3e,
  0x64, 0xbb, 0x6b, 0xbb, 0xd3, 0xfd, 0x7b, 0x3c, 0xcd, 0x0f, 0x6d, 0xbd,
  0x8e, 0x4e, 0x6b, 0xbe, 0xfe, 0x7f, 0xd9, 0x3d, 0xea, 0xff, 0x8f, 0x3e,
  0x20, 0x42, 0xb4, 0x3c, 0x10, 0xbe, 0xc2, 0x3d, 0x1e, 0xf6, 0x07, 0xbe,
  0x84, 0x11, 0x69, 0xbe, 0xb7, 0xd6, 0x3a, 0x3e, 0x47, 0x6b, 0x58, 0x3e,
  0xa7, 0x2b, 0x25, 0xbd, 0x85, 0x11, 0x2f, 0x3e, 0x87, 0xaa, 0x22, 0xbe,
  0xfb, 0xd6, 0xc7, 0xbe, 0x80, 0xf4, 0xbf, 0x3d, 0x5c, 0x99, 0x58, 0x3e,
  0xf7, 0xdd, 0x01, 0x3d, 0xc3, 0x58, 0x75, 0x3d, 0x7c, 0xcf, 0x03, 0xbe,
  0x1d, 0xaf, 0xa1, 0xbe, 0xf4, 0xe2, 0x42, 0x3e, 0xc6, 0x1d, 0xa5, 0x3e,
  0x24, 0xc3, 0x53, 0xbd, 0xe3, 0xa7, 0xc0, 0x3d, 0x26, 0x52, 0x46, 0xbe,
  0x4a, 0x10, 0xd1, 0xbe, 0xcd, 0x3a, 0x07, 0x3e, 0x3e, 0xb0, 0x82, 0x3e,
  0x24, 0x75, 0xab, 0xbd, 0x36, 0x4f, 0x45, 0x3e, 0x0a, 0xbf, 0x1e, 0xbe,
  0x77, 0x34, 0xb3, 0xbe, 0xe2, 0x45, 0x72, 0x3d, 0xf0, 0x91, 0x8e, 0x3e,
  0xd8, 0xdd, 0x55, 0xbc, 0x1d, 0x74, 0x53, 0x3e, 0xde, 0x08, 0x20, 0xbe,
  0x2e, 0x41, 0xb8, 0xbe, 0x70, 0xff, 0xa3, 0x3d, 0x63, 0x55, 0xb0, 0x3e,
  0x95, 0xe2, 0x34, 0xbe, 0x3f, 0x8f, 0x34, 0x3e, 0x74, 0x25, 0x10, 0xbe,
  0x2b, 0x59, 0xbe, 0xbe, 0x16, 0xb6, 0x5c, 0x3b, 0xfe, 0x73, 0xcd, 0x3e,
  0x19, 0xdd, 0xf3, 0xbd, 0x64, 0xa9, 0x08, 0x3e, 0xc6, 0x67, 0xf2, 0xbd,
  0x7a, 0x71, 0xb1, 0xbe, 0x53, 0x02, 0x3b, 0xbd, 0x1c, 0xca, 0xbe, 0x3e,
  0x78, 0x7b, 0x61, 0xbd, 0x2b, 0x3a, 0xd3, 0x3d, 0x3c, 0x7d, 0x4e, 0xbe,
  0x97, 0xb0, 0xce, 0xbe, 0xd6, 0x26, 0xfa, 0xbd, 0xa3, 0x93, 0xf1, 0x3e,
  0x78, 0x56, 0xee, 0xbd, 0x80, 0x0d, 0x0f, 0x3e, 0x98, 0x0e, 0x5d, 0xbe,
  0x6d, 0x2f, 0x05, 0xbf, 0x8f, 0xe0, 0x20, 0xbe, 0x10, 0xad, 0xf0, 0x3e,
  0x32, 0x19, 0x64, 0xbe, 0x3d, 0xf2, 0x79, 0x3e, 0xf4, 0x86, 0x46, 0xbe,
  0x17, 0x37, 0xd8, 0xbe, 0xac, 0xef, 0xd9, 0xbd, 0x8d, 0x80, 0x04, 0x3f,
  0x35, 0x21, 0x50, 0xbe, 0x8b, 0xb4, 0x54, 0x3e, 0x34, 0x9a, 0x71, 0xbe,
  0xcb, 0xa5, 0xe5, 0xbe, 0x73, 0xcc, 0x0f, 0xbe, 0x17, 0xc4, 0xfb, 0x3e,
  0x37, 0x1f, 0x04, 0xbe, 0x74, 0xfe, 0x85, 0x3e, 0xd9, 0x82, 0x5a, 0xbe,
  0x42, 0x6d, 0xec, 0xbe, 0xc5, 0xd8, 0x9c, 0xbd, 0xfb, 0xa3, 0x04, 0x3f,
  0xee, 0xf4, 0x8a, 0xbe, 0x7c, 0x6d, 0x2d, 0x3e, 0x10, 0x51, 0x9e, 0xbe,
  0xe8, 0x82, 0xfe, 0xbe, 0x55, 0xe3, 0x3b, 0xbe, 0xdb, 0xc7, 0xce, 0x3e,
  0x75, 0x54, 0x96, 0xbe, 0xe3, 0xfe, 0x4c, 0x3e, 0x9b, 0x1b, 0x89, 0xbe,
  0x96, 0x77, 0x22, 0xbf, 0x4b, 0x03, 0x3c, 0xbe, 0x95, 0xc0, 0xc7, 0x3e,
  0x44, 0x86, 0x92, 0xbe, 0x64, 0xfa, 0xdb, 0x3d, 0x06, 0x57, 0x95, 0xbe,
  0x5e, 0x55, 0x24, 0xbf, 0xb4, 0x2f, 0x38, 0xbe, 0x52, 0xc2, 0xd5, 0x3e,
  0x9f, 0x4a, 0x51, 0xbe, 0xb6, 0xf9, 0x05, 0x3e, 0x65, 0x8a, 0xad, 0xbe,
  0xc1, 0x0d, 0x30, 0xbf, 0x2b, 0x5c, 0x67, 0xbe, 0xbc, 0x76, 0xcf, 0x3e,
  0xc6, 0x08, 0x1f, 0xbe, 0xf2, 0x50, 0x37, 0x3e, 0xd2, 0x2a, 0x97, 0xbe,
  0x28, 0x02, 0x19, 0xbf, 0xeb, 0xfe, 0x2b, 0xbe, 0x17, 0x1d, 0xec, 0x3e,
  0x04, 0x16, 0x9c, 0xbe, 0x75, 0x4a, 0x69, 0x3e, 0x88, 0xad, 0x6b, 0xbe,
  0xe8, 0x93, 0x1a, 0xbf, 0x06, 0x7f, 0x19, 0xbe, 0x1d, 0xdb, 0xc0, 0x3e,
  0x66, 0x2d, 0x73, 0xbe, 0x1f, 0xbe, 0x91, 0x3e, 0xe6, 0x1e, 0xc5, 0xbe,
  0xa5, 0x5f, 0x21, 0xbf, 0x0f, 0x7f, 0x2e, 0xbe, 0x4c, 0x66, 0xb1, 0x3e,
  0x36, 0x1b, 0x3a, 0xbe, 0x55, 0xed, 0x1e, 0x3e, 0x96, 0xe8, 0xab, 0xbe,
  0x35, 0xe7, 0x4d, 0xbf, 0x57, 0x62, 0x2e, 0xbe, 0x98, 0xe1, 0xb8, 0x3e,
  0xbf, 0x2f, 0x3f, 0xbe, 0x01, 0x4a, 0x88, 0x3e, 0xbb, 0x08, 0x82, 0xbe,
  0xb8, 0x0f, 0x3a, 0xbf, 0x28, 0xc7, 0x71, 0xbe, 0xe5, 0xc3, 0xd8, 0x3e,
  0x81, 0x49, 0x53, 0xbe, 0x77, 0xc5, 0x3c, 0x3e, 0xed, 0x6b, 0xc4, 0xbe,
  0x5c, 0xe9, 0x2c, 0xbf, 0x83, 0x41, 0x45, 0xbe, 0x01, 0x76, 0xc9, 0x3e,
  0x58, 0x2a, 0x7f, 0xbe, 0x55, 0xeb, 0x95, 0x3e, 0xbf, 0xf0, 0x5b, 0xbe,
  0x47, 0x8c, 0x06, 0xbf, 0x77, 0x43, 0x91, 0xbe, 0x64, 0x92, 0xa4, 0x3e,
  0xf9, 0xa9, 0x2b, 0xbe, 0xb4, 0x6b, 0x8e, 0x3e, 0xbc, 0xeb, 0x92, 0xbe,
  0xfd, 0x20, 0x1f, 0xbf, 0x80, 0x00, 0x84, 0xbe, 0x6c, 0xbe, 0x8a, 0x3e,
  0xaf, 0xa6, 0x39, 0xbe, 0x10, 0x9f, 0x34, 0x3e, 0xe9, 0xa2, 0x7d, 0xbe,
  0xef, 0xf7, 0xeb, 0xbe, 0xa8, 0x32, 0x82, 0xbe, 0x9c, 0x8d, 0xa1, 0x3e,
  0x5e, 0x49, 0x48, 0xbe, 0x14, 0x7f, 0x58, 0x3e, 0x46, 0xc0, 0x99, 0xbe,
  0x33, 0x81, 0x06, 0xbf, 0xfb, 0x3c, 0x8b, 0xbe, 0x65, 0x36, 0xad, 0x3e,
  0x16, 0xa1, 0x84, 0xbe, 0x34, 0x73, 0x89, 0x3e, 0xca, 0x2b, 0x0e, 0xbe,
  0x27, 0x8a, 0xca, 0xbe, 0x97, 0xfe, 0x7b, 0xbe, 0x8d, 0x45, 0xaa, 0x3e,
  0x4d, 0xcc, 0x2b, 0xbe, 0x0b, 0x48, 0xa2, 0x3e, 0xc5, 0x75, 0x22, 0xbe,
  0x39, 0xe2, 0xc3, 0xbe, 0xe0, 0x6e, 0x8f, 0xbe, 0xb9, 0x3d, 0x9b, 0x3e,
  0xab, 0x0c, 0x27, 0xbe, 0x1f, 0xd3, 0xb0, 0x3e, 0x18, 0x08, 0x3d, 0xbe,
  0xfe, 0xb9, 0xb6, 0xbe, 0x20, 0xed, 0xb5, 0xbe, 0x02, 0x5e, 0x7f, 0x3e,
  0xe3, 0x43, 0x53, 0xbe, 0x9b, 0x8e, 0xab, 0x3e, 0xcb, 0x65, 0x21, 0xbe,
  0x68, 0xa3, 0x4b, 0xbe, 0xd4, 0xa6, 0x9a, 0xbe, 0x42, 0xa6, 0x59, 0x3e,
  0x58, 0x78, 0x61, 0xbe, 0x58, 0x7a, 0x82, 0x3e, 0x71, 0x1a, 0x9c, 0xbd,
  0x7c, 0xe3, 0xc0, 0xbd, 0xcc, 0x16, 0xbf, 0xbe, 0xe5, 0x22, 0xf3, 0x3d,
  0xab, 0xf8, 0x58, 0xbe, 0x8d, 0x57, 0x9e, 0x3e, 0xf7, 0x49, 0x97, 0xbd,
  0x94, 0xb1, 0x36, 0xbd, 0x3e, 0xb2, 0xc0, 0xbe, 0x87, 0x45, 0xfa, 0x3d,
  0x6e, 0x9e, 0x4b, 0xbe, 0x7f, 0x86, 0x72, 0x3e, 0x60, 0x59, 0x4a, 0xbe,
  0xf2, 0x46, 0xa0, 0xbd, 0x02, 0xd1, 0x85, 0xbe, 0x9c, 0xd6, 0x45, 0x3e,
  0x9f, 0x87, 0x5a, 0xbe, 0x91, 0xeb, 0x8f, 0x3e, 0x6e, 0x6a, 0xfe, 0xbc,
  0x12, 0x11, 0xca, 0xbd, 0x0c, 0x59, 0x7c, 0xbe, 0xab, 0x37, 0x82, 0x3e,
  0x21, 0x1c, 0x54, 0xbe, 0x5a, 0xf4, 0x41, 0x3e, 0xe5, 0x8b, 0x11, 0xbe,
  0x11, 0x19, 0x9f, 0xbc, 0x6c, 0x7d, 0x95, 0xbe, 0x5a, 0xa0, 0x71, 0x3e,
  0xe7, 0x0d, 0x35, 0xbe, 0x95, 0x91, 0x12, 0x3e, 0x14, 0x91, 0x10, 0xbe,
  0x71, 0xce, 0x3e, 0xbe, 0x12, 0x15, 0x70, 0xbe, 0xc6, 0x39, 0x05, 0x3e,
  0x52, 0x92, 0x8f, 0xbe, 0xf8, 0xbc, 0x70, 0x3e, 0x80, 0x6b, 0xbc, 0xbd,
  0xc8, 0x09, 0x17, 0xbe, 0xb2, 0xd5, 0x71, 0xbe, 0x49, 0x68, 0xee, 0x3d,
  0xcf, 0x32, 0x64, 0xbe, 0xd4, 0x9a, 0x27, 0x3e, 0x7e, 0xf7, 0x9d, 0xbc,
  0xeb, 0x82, 0x28, 0xbd, 0x94, 0xf4, 0x6f, 0xbe, 0x53, 0x97, 0x3f, 0x3e,
  0x76, 0x11, 0x8f, 0xbe, 0x8a, 0x1b, 0x0e, 0x3e, 0xd3, 0x5a, 0x2c, 0xbe,
  0xc0, 0x91, 0x04, 0xbe, 0x39, 0xc7, 0x66, 0xbe, 0xfa, 0x8e, 0x16, 0x3e,
  0x75, 0xe6, 0x44, 0xbe, 0xd3, 0xc0, 0xdf, 0x3d, 0x14, 0x2a, 0xd0, 0xbd,
  0xd2, 0x17, 0xb5, 0xbd, 0x24, 0x99, 0x59, 0xbe, 0xb5, 0xa5, 0xd7, 0x3d,
  0x0e, 0x50, 0x84, 0xbe, 0x3d, 0x59, 0x7c, 0x3e, 0xc6, 0x0b, 0x2f, 0xbe,
  0x20, 0x16, 0x18, 0xbe, 0x1c, 0x66, 0x63, 0xbe, 0x92, 0x85, 0xdf, 0x3d,
  0x2a, 0x03, 0x4f, 0xbe, 0x99, 0xfa, 0x66, 0x3e, 0x95, 0xbd, 0x1f, 0x3c,
  0x12, 0xdc, 0x08, 0xbe, 0xf6, 0xac, 0x0f, 0xbe, 0x93, 0xa3, 0xc7, 0x3d,
  0x08, 0x6c, 0x0a, 0xbe, 0x33, 0xe7, 0x76, 0x3e, 0x51, 0xd2, 0x55, 0x3a,
  0x4f, 0x9d, 0xa3, 0x3b, 0x69, 0xf2, 0xbd, 0xbd, 0xbf, 0x8e, 0x4c, 0x3e,
  0xd2, 0x2b, 0xdb, 0xbd, 0x5d, 0xa1, 0x63, 0x3e, 0x49, 0xe1, 0x78, 0xbd,
  0x8e, 0x81, 0xc5, 0xbd, 0xca, 0x82, 0x5f, 0xbe, 0xfb, 0x56, 0xdf, 0x3d,
  0x6f, 0x78, 0x71, 0xbe, 0x54, 0x79, 0xdc, 0x3d, 0x3c, 0x88, 0x5c, 0xbd,
  0xaf, 0x14, 0xe4, 0xbd, 0x50, 0xb8, 0xee, 0xbd, 0xbb, 0xf2, 0x0e, 0x3e,
  0xd5, 0xcc, 0x7d, 0xbe, 0xf9, 0x2d, 0x50, 0x3d, 0x41, 0xae, 0x4e, 0xbd,
  0x5d, 0xe3, 0x1d, 0xbe, 0xc7, 0x07, 0x21, 0xbe, 0x1a, 0x12, 0x10, 0x3d,
  0x59, 0x76, 0x64, 0xbe, 0x3d, 0xe4, 0x29, 0x3e, 0xe2, 0x54, 0x73, 0xbd,
  0xfb, 0x0f, 0xd9, 0xbd, 0x5a, 0x0d, 0xa6, 0xbd, 0xc3, 0xef, 0x23, 0x3e,
  0xc6, 0x7b, 0x33, 0xbe, 0x21, 0xd2, 0x00, 0x3e, 0x34, 0x99, 0x3a, 0xbc,
  0x04, 0xbb, 0x4d, 0xbe, 0x00, 0x41, 0x8e, 0xbd, 0x99, 0x1f, 0x07, 0x3e,
  0x3e, 0x5b, 0x4c, 0xbe, 0xf9, 0x98, 0x5c, 0x3e, 0xf4, 0xcb, 0x17, 0x3d,
  0xbf, 0xa9, 0x19, 0xbe, 0x38, 0x03, 0x9c, 0xbc, 0x21, 0x2a, 0x81, 0x3c,
  0xea, 0x1b, 0x2c, 0xbe, 0x67, 0xef, 0x37, 0x3e, 0x18, 0x38, 0x2e, 0x3d,
  0x54, 0x7e, 0xb7, 0xbd, 0x1d, 0x57, 0x27, 0xbc, 0xce, 0x70, 0xbc, 0x3d,
  0x7d, 0x32, 0xa4, 0xbd, 0x7f, 0x1a, 0x53, 0x3e, 0x08, 0x79, 0x24, 0x3c,
  0x70, 0x0f, 0xe0, 0xbd, 0xbc, 0xb7, 0x8a, 0xba, 0x47, 0xa1, 0x87, 0x3d,
  0x1d, 0x38, 0x33, 0xbe, 0x30, 0x55, 0x6f, 0x3d, 0xf9, 0x45, 0x72, 0xbd,
  0xa6, 0xf0, 0x35, 0xbd, 0x49, 0x4e, 0x23, 0x3d, 0x05, 0xc7, 0x15, 0x3e,
  0xc5, 0xda, 0x91, 0xbd, 0x7f, 0x54, 0x56, 0x3e, 0x6e, 0xc4, 0x22, 0xbd,
  0x6e, 0xa8, 0xa3, 0xbd, 0x1c, 0x93, 0x82, 0xbd, 0xef, 0xb4, 0x00, 0x3e,
  0x23, 0xc3, 0x83, 0xbc, 0xee, 0x78, 0x1d, 0x3e, 0xf6, 0x39, 0x96, 0x3d,
  0x9e, 0x13, 0xdc, 0x3c, 0xa8, 0x1f, 0x26, 0x3a, 0x3a, 0xdb, 0xaa, 0x3c,
  0x33, 0x6b, 0x0d, 0xbe, 0xb8, 0x52, 0x28, 0x3e, 0x2d, 0x04, 0xb5, 0x3d,
  0x3e, 0x0b, 0x04, 0xbd, 0xb3, 0xcd, 0xb1, 0xbd, 0x3d, 0x0c, 0xb1, 0x3d,
  0x8c, 0xe8, 0x9a, 0xbc, 0xbc, 0xc5, 0x49, 0x3e, 0xcd, 0xa6, 0x16, 0xbd,
  0xd3, 0x8c, 0x0c, 0xbc, 0x65, 0x50, 0x2e, 0xbd, 0xff, 0x56, 0xb7, 0x3c,
  0x7e, 0x6e, 0xa6, 0x3b, 0xac, 0x66, 0x3d, 0x3e, 0x33, 0xdb, 0xa3, 0x3c,
  0x16, 0xdc, 0xcf, 0x3d, 0x42, 0x89, 0x22, 0x3d, 0xf6, 0xfe, 0x2c, 0x3d,
  0x05, 0x3e, 0x0d, 0xbd, 0x78, 0xeb, 0xa5, 0x3d, 0x3d, 0x9b, 0x8e, 0x3c,
  0x4d, 0x87, 0x1d, 0x3d, 0xf0, 0xf6, 0xaa, 0x3d, 0x58, 0xb1, 0xab, 0x3c,
  0xe0, 0xc7, 0xcb, 0xbd, 0x18, 0x85, 0x17, 0x3e, 0x67, 0x83, 0xa0, 0x3d,
  0xfd, 0xff, 0x23, 0x3e, 0x2d, 0xd4, 0x8d, 0xbb, 0x37, 0x79, 0xd6, 0x3d,
  0x52, 0xb8, 0x16, 0x3d, 0x28, 0x3a, 0x5d, 0x3d, 0xc7, 0xf3, 0xd1, 0xbc,
  0x04, 0x25, 0x1d, 0x3e, 0xd0, 0xa8, 0x86, 0xbd, 0xfe, 0xcd, 0x6b, 0xbc,
  0x53, 0xcc, 0xf7, 0x3c, 0x0a, 0xcf, 0x03, 0x3e, 0x03, 0x58, 0x90, 0x3c,
  0xf5, 0xa6, 0x3a, 0x3e, 0x63, 0xfb, 0x3e, 0xbc, 0x7c, 0x2e, 0xa6, 0x3c,
  0x8a, 0xeb, 0x0e, 0x3d, 0xa8, 0xc3, 0x0c, 0x3e, 0x92, 0x8d, 0x18, 0x3e,
  0xf5, 0xb7, 0x21, 0x3e, 0x48, 0xa2, 0xa5, 0x3d, 0xdd, 0xd6, 0x3f, 0xbd,
  0x52, 0x82, 0x3e, 0x3d, 0x16, 0x6f, 0x95, 0x3d, 0x54, 0x64, 0xac, 0x3d,
  0xe6, 0x5c, 0x1b, 0x3e, 0x07, 0xcb, 0x67, 0xbc, 0x10, 0xbd, 0xd0, 0xbc,
  0x45, 0xad, 0x39, 0x3c, 0x99, 0x51, 0xe4, 0x3d, 0x8e, 0x22, 0xac, 0x3b,
  0x6f, 0x5e, 0x1a, 0x3e, 0x0a, 0x78, 0x0d, 0x3d, 0xc0, 0x35, 0xac, 0x3d,
  0x6a, 0xa1, 0x27, 0xbd, 0xcb, 0x61, 0x5f, 0x3d, 0x7b, 0x98, 0xa9, 0x3d,
  0x3c, 0xcc, 0x1f, 0x3e, 0xd0, 0x19, 0x06, 0xbd, 0x06, 0x71, 0x04, 0xbd,
  0x69, 0x19, 0x54, 0xbd, 0x79, 0xec, 0x07, 0x3e, 0x6a, 0x3d, 0x2e, 0x3e,
  0x5a, 0x60, 0x9a, 0x3d, 0xc8, 0x35, 0xf6, 0x3c, 0x60, 0xcf, 0x0e, 0x3e,
  0xff, 0xc9, 0x19, 0xbd, 0x56, 0x42, 0x2d, 0x3d, 0xcc, 0x61, 0x0a, 0x3e,
  0x85, 0xaf, 0xaf, 0x3c, 0x93, 0xd2, 0x02, 0xbd, 0xb1, 0x28, 0x02, 0x3d,
  0x3f, 0x23, 0x32, 0xbd, 0x93, 0x41, 0x3f, 0x3d, 0x78, 0x71, 0xbc, 0x3c,
  0x68, 0xdc, 0x12, 0x3d, 0x42, 0xc9, 0x64, 0x3d, 0x04, 0x2e, 0xe1, 0x3d,
  0xd5, 0x1e, 0xe6, 0x3c, 0xda, 0x11, 0x54, 0x3c, 0x9b, 0x11, 0x07, 0x3e,
  0xd5, 0x64, 0xdf, 0x3d, 0xc2, 0xbf, 0xce, 0xbd, 0x6c, 0x44, 0xd3, 0x3d,
  0xf7, 0x71, 0xa9, 0x3d, 0x74, 0x76, 0x26, 0x3e, 0xf6, 0x9c, 0xc7, 0x3d,
  0x9c, 0xe6, 0xb6, 0xbc, 0xb9, 0xb4, 0xec, 0xbb, 0x56, 0xc3, 0x0e, 0x3b,
  0x9e, 0xb0, 0xae, 0x3d, 0x15, 0x7d, 0xff, 0x3d, 0x75, 0xae, 0x16, 0x3e,
  0xea, 0xf5, 0x47, 0x3c, 0xeb, 0xe6, 0xda, 0xbd, 0x35, 0x70, 0xf3, 0xbb,
  0x87, 0xd0, 0x75, 0x3d, 0xa1, 0xaa, 0x88, 0x3d, 0xd6, 0x76, 0x49, 0x3e,
  0xf0, 0x19, 0x14, 0x3d, 0x30, 0xaf, 0x05, 0x3d, 0xcd, 0x60, 0x28, 0xbb,
  0xcd, 0xc2, 0x45, 0xbd, 0xcc, 0x57, 0x20, 0x3e, 0x3b, 0xb3, 0xb3, 0x3d,
  0x2e, 0x82, 0x90, 0x3d, 0xb9, 0xc2, 0xc2, 0xbd, 0x12, 0x80, 0x0e, 0x3e,
  0x47, 0x00, 0x1f, 0xbd, 0x6d, 0x34, 0xbc, 0x3d, 0xa5, 0x28, 0x26, 0x3e,
  0x53, 0x2b, 0xe4, 0x3d, 0xfe, 0xf4, 0x71, 0xbd, 0x98, 0x34, 0x04, 0x3e,
  0xe5, 0xf7, 0x14, 0xbd, 0xf1, 0x90, 0x4e, 0x3d, 0xb3, 0x50, 0xf5, 0x3d,
  0x99, 0x64, 0x9f, 0x3d, 0x52, 0xc5, 0x23, 0xbd, 0xbc, 0xcd, 0xf1, 0x3d,
  0xdd, 0x14, 0x88, 0x3c, 0x10, 0xbc, 0x0a, 0x3d, 0x9c, 0x59, 0x06, 0x3e,
  0x70, 0x39, 0xe9, 0x3d, 0x64, 0x56, 0x34, 0xbd, 0x5c, 0x34, 0x06, 0x3e,
  0x17, 0x3a, 0xe1, 0x3d, 0x23, 0x8b, 0xe6, 0x3d, 0x33, 0xbf, 0x83, 0x3e,
  0x38, 0x50, 0xbf, 0x3d, 0xce, 0xf1, 0xf4, 0xbd, 0x72, 0x75, 0xd8, 0x3d,
  0xb2, 0x05, 0x01, 0x3e, 0x80, 0x34, 0x88, 0x3d, 0xf9, 0x7c, 0xdc, 0x3d,
  0xc4, 0xa8, 0x85, 0xbc, 0x87, 0x58, 0x18, 0xbe, 0x18, 0xa8, 0xc6, 0x3c,
  0x1d, 0xe4, 0x6e, 0x3c, 0x80, 0xbd, 0xd3, 0x3d, 0x0f, 0x8c, 0x74, 0x3e,
  0xbb, 0xc7, 0x11, 0x3d, 0xa9, 0x2c, 0x1c, 0xbe, 0xea, 0xe5, 0x4e, 0x3d,
  0x9c, 0x6e, 0xeb, 0x3d, 0x42, 0x5c, 0x0e, 0x3e, 0x53, 0xe2, 0x11, 0x3e,
  0x51, 0xad, 0x8b, 0x3d, 0x33, 0xe5, 0xf2, 0x3c, 0xd2, 0xd2, 0xe0, 0x3d,
  0xc5, 0xfc, 0x03, 0x3e, 0x2e, 0x6b, 0xdb, 0x3d, 0x5f, 0x72, 0x32, 0x3e,
  0xe6, 0x4e, 0x32, 0xbc, 0x42, 0xec, 0x0f, 0x3b, 0xfa, 0x9f, 0xe1, 0x3d,
  0x11, 0x37, 0x3a, 0x3d, 0x27, 0x7f, 0x09, 0x3e, 0xe7, 0x6f, 0x89, 0x3e,
  0x84, 0x82, 0x11, 0xbe, 0xa1, 0xd5, 0xa8, 0xbd, 0xa8, 0x33, 0xf0, 0x3d,
  0xc3, 0x0e, 0x5c, 0x3d, 0x9f, 0xb5, 0x93, 0x3d, 0x28, 0xdc, 0xd2, 0x3d,
  0x5d, 0x4f, 0x39, 0xbd, 0xc6, 0x9a, 0xbe, 0xbd, 0x8c, 0x8b, 0xa5, 0x3d,
  0xb4, 0x53, 0xba, 0xbc, 0xac, 0xd0, 0x05, 0x3e, 0x99, 0x7d, 0x12, 0x3e,
  0x5c, 0x45, 0x35, 0xbe, 0xd0, 0x23, 0xa7, 0xbd, 0x0b, 0xe4, 0xe7, 0x3d,
  0x0d, 0xac, 0xde, 0x3d, 0xa6, 0xf9, 0x28, 0x3c, 0x68, 0x23, 0x0b, 0x3e,
  0x4b, 0x51, 0x52, 0xbe, 0x0c, 0xde, 0xaf, 0xbc, 0xb9, 0xdc, 0x0e, 0xbc,
  0x7a, 0xf7, 0x24, 0x3e, 0x0f, 0xe9, 0x0a, 0x3d, 0x1c, 0xc5, 0x5f, 0x3e,
  0xf1, 0x63, 0x67, 0xbe, 0xaf, 0xf3, 0x9e, 0xbd, 0x21, 0x2a, 0xf0, 0x3d,
  0xa5, 0xdf, 0x23, 0x3e, 0xbd, 0x7b, 0x0c, 0x3e, 0x2b, 0x9d, 0x2c, 0x3e,
  0x77, 0x09, 0xf3, 0xbd, 0x3b, 0x26, 0xec, 0xbc, 0xe9, 0xbe, 0x0a, 0xbb,
  0x1e, 0x77, 0x02, 0x3e, 0xb8, 0xf9, 0x31, 0x3e, 0x15, 0xd2, 0x86, 0x3e,
  0xd4, 0xbd, 0x09, 0xbe, 0x7d, 0xce, 0xc9, 0x3c, 0x42, 0xfc, 0xa1, 0xbc,
  0x7c, 0x08, 0xb8, 0x3d, 0x7c, 0xa9, 0xde, 0x3d, 0x57, 0x11, 0xfb, 0x3d,
  0x80, 0x36, 0xa0, 0xbe, 0xd8, 0xac, 0x34, 0xbd, 0xcb, 0x12, 0x18, 0x3d,
  0xf2, 0x3a, 0x13, 0x3d, 0xc1, 0x1d, 0x37, 0x3e, 0x5e, 0xff, 0xff, 0xff,
  0x04, 0x00, 0x00, 0x00, 0x08, 0x00, 0x00, 0x00, 0x8e, 0x36, 0x85, 0xbd,
  0x9b, 0x7c, 0x84, 0x3d, 0x38, 0xfd, 0xff, 0xff, 0x3c, 0xfd, 0xff, 0xff,
  0x0f, 0x00, 0x00, 0x00, 0x4d, 0x4c, 0x49, 0x52, 0x20, 0x43, 0x6f, 0x6e,
  0x76, 0x65, 0x72, 0x74, 0x65, 0x64, 0x2e, 0x00, 0x01, 0x00, 0x00, 0x00,
  0x14, 0x00, 0x00, 0x00, 0x00, 0x00, 0x0e, 0x00, 0x18, 0x00, 0x14, 0x00,
  0x10, 0x00, 0x0c, 0x00, 0x08, 0x00, 0x04, 0x00, 0x0e, 0x00, 0x00, 0x00,
  0x14, 0x00, 0x00, 0x00, 0x1c, 0x00, 0x00, 0x00, 0xac, 0x00, 0x00, 0x00,
  0xb0, 0x00, 0x00, 0x00, 0xb4, 0x00, 0x00, 0x00, 0x04, 0x00, 0x00, 0x00,
  0x6d, 0x61, 0x69, 0x6e, 0x00, 0x00, 0x00, 0x00, 0x02, 0x00, 0x00, 0x00,
  0x60, 0x00, 0x00, 0x00, 0x14, 0x00, 0x00, 0x00, 0x00, 0x00, 0x0e, 0x00,
  0x1a, 0x00, 0x14, 0x00, 0x10, 0x00, 0x0c, 0x00, 0x0b, 0x00, 0x04, 0x00,
  0x0e, 0x00, 0x00, 0x00, 0x1c, 0x00, 0x00, 0x00, 0x00, 0x00, 0x00, 0x09,
  0x1c, 0x00, 0x00, 0x00, 0x20, 0x00, 0x00, 0x00, 0x01, 0x00, 0x00, 0x00,
  0x00, 0x00, 0x06, 0x00, 0x08, 0x00, 0x04, 0x00, 0x06, 0x00, 0x00, 0x00,
  0x00, 0x00, 0x80, 0x3f, 0x01, 0x00, 0x00, 0x00, 0x04, 0x00, 0x00, 0x00,
  0x01, 0x00, 0x00, 0x00, 0x03, 0x00, 0x00, 0x00, 0x00, 0x00, 0x0e, 0x00,
  0x14, 0x00, 0x00, 0x00, 0x10, 0x00, 0x0c, 0x00, 0x0b, 0x00, 0x04, 0x00,
  0x0e, 0x00, 0x00, 0x00, 0x10, 0x00, 0x00, 0x00, 0x00, 0x00, 0x00, 0x08,
  0x0c, 0x00, 0x00, 0x00, 0x10, 0x00, 0x00, 0x00, 0x08, 0xfe, 0xff, 0xff,
  0x01, 0x00, 0x00, 0x00, 0x03, 0x00, 0x00, 0x00, 0x03, 0x00, 0x00, 0x00,
  0x00, 0x00, 0x00, 0x00, 0x02, 0x00, 0x00, 0x00, 0x01, 0x00, 0x00, 0x00,
  0x01, 0x00, 0x00, 0x00, 0x04, 0x00, 0x00, 0x00, 0x01, 0x00, 0x00, 0x00,
  0x00, 0x00, 0x00, 0x00, 0x05, 0x00, 0x00, 0x00, 0xa0, 0x01, 0x00, 0x00,
  0x34, 0x01, 0x00, 0x00, 0xd4, 0x00, 0x00, 0x00, 0x60, 0x00, 0x00, 0x00,
  0x04, 0x00, 0x00, 0x00, 0x8a, 0xfe, 0xff, 0xff, 0x00, 0x00, 0x00, 0x01,
  0x14, 0x00, 0x00, 0x00, 0x1c, 0x00, 0x00, 0x00, 0x1c, 0x00, 0x00, 0x00,
  0x05, 0x00, 0x00, 0x00, 0x34, 0x00, 0x00, 0x00, 0x02, 0x00, 0x00, 0x00,
  0xff, 0xff, 0xff, 0xff, 0x02, 0x00, 0x00, 0x00, 0x74, 0xfe, 0xff, 0xff,
  0x19, 0x00, 0x00, 0x00, 0x53, 0x74, 0x61, 0x74, 0x65, 0x66, 0x75, 0x6c,
  0x50, 0x61, 0x72, 0x74, 0x69, 0x74, 0x69, 0x6f, 0x6e, 0x65, 0x64, 0x43,
  0x61, 0x6c, 0x6c, 0x3a, 0x30, 0x00, 0x00, 0x00, 0x02, 0x00, 0x00, 0x00,
  0x01, 0x00, 0x00, 0x00, 0x02, 0x00, 0x00, 0x00, 0xe2, 0xfe, 0xff, 0xff,
  0x00, 0x00, 0x00, 0x01, 0x14, 0x00, 0x00, 0x00, 0x1c, 0x00, 0x00, 0x00,
  0x1c, 0x00, 0x00, 0x00, 0x04, 0x00, 0x00, 0x00, 0x4c, 0x00, 0x00, 0x00,
  0x02, 0x00, 0x00, 0x00, 0xff, 0xff, 0xff, 0xff, 0x02, 0x00, 0x00, 0x00,
  0xcc, 0xfe, 0xff, 0xff, 0x30, 0x00, 0x00, 0x00, 0x73, 0x65, 0x71, 0x75,
  0x65, 0x6e, 0x74, 0x69, 0x61, 0x6c, 0x2f, 0x64, 0x65, 0x6e, 0x73, 0x65,
  0x2f, 0x4d, 0x61, 0x74, 0x4d, 0x75, 0x6c, 0x3b, 0x73, 0x65, 0x71, 0x75,
  0x65, 0x6e, 0x74, 0x69, 0x61, 0x6c, 0x2f, 0x64, 0x65, 0x6e, 0x73, 0x65,
  0x2f, 0x42, 0x69, 0x61, 0x73, 0x41, 0x64, 0x64, 0x00, 0x00, 0x00, 0x00,
  0x02, 0x00, 0x00, 0x00, 0x01, 0x00, 0x00, 0x00, 0x02, 0x00, 0x00, 0x00,
  0xba, 0xff, 0xff, 0xff, 0x00, 0x00, 0x00, 0x01, 0x10, 0x00, 0x00, 0x00,
  0x10, 0x00, 0x00, 0x00, 0x03, 0x00, 0x00, 0x00, 0x24, 0x00, 0x00, 0x00,
  0x2c, 0xff, 0xff, 0xff, 0x17, 0x00, 0x00, 0x00, 0x73, 0x65, 0x71, 0x75,
  0x65, 0x6e, 0x74, 0x69, 0x61, 0x6c, 0x2f, 0x64, 0x65, 0x6e, 0x73, 0x65,
  0x2f, 0x4d, 0x61, 0x74, 0x4d, 0x75, 0x6c, 0x00, 0x02, 0x00, 0x00, 0x00,
  0x02, 0x00, 0x00, 0x00, 0xca, 0x02, 0x00, 0x00, 0x00, 0x00, 0x16, 0x00,
  0x18, 0x00, 0x14, 0x00, 0x00, 0x00, 0x10, 0x00, 0x0c, 0x00, 0x08, 0x00,
  0x00, 0x00, 0x00, 0x00, 0x00, 0x00, 0x07, 0x00, 0x16, 0x00, 0x00, 0x00,
  0x00, 0x00, 0x00, 0x01, 0x10, 0x00, 0x00, 0x00, 0x10, 0x00, 0x00, 0x00,
  0x02, 0x00, 0x00, 0x00, 0x34, 0x00, 0x00, 0x00, 0x88, 0xff, 0xff, 0xff,
  0x27, 0x00, 0x00, 0x00, 0x73, 0x65, 0x71, 0x75, 0x65, 0x6e, 0x74, 0x69,
  0x61, 0x6c, 0x2f, 0x64, 0x65, 0x6e, 0x73, 0x65, 0x2f, 0x42, 0x69, 0x61,
  0x73, 0x41, 0x64, 0x64, 0x2f, 0x52, 0x65, 0x61, 0x64, 0x56, 0x61, 0x72,
  0x69, 0x61, 0x62, 0x6c, 0x65, 0x4f, 0x70, 0x00, 0x01, 0x00, 0x00, 0x00,
  0x02, 0x00, 0x00, 0x00, 0x00, 0x00, 0x16, 0x00, 0x1c, 0x00, 0x18, 0x00,
  0x00, 0x00, 0x14, 0x00, 0x10, 0x00, 0x0c, 0x00, 0x00, 0x00, 0x00, 0x00,
  0x08, 0x00, 0x07, 0x00, 0x16, 0x00, 0x00, 0x00, 0x00, 0x00, 0x00, 0x01,
  0x14, 0x00, 0x00, 0x00, 0x20, 0x00, 0x00, 0x00, 0x20, 0x00, 0x00, 0x00,
  0x01, 0x00, 0x00, 0x00, 0x3c, 0x00, 0x00, 0x00, 0x02, 0x00, 0x00, 0x00,
  0xff, 0xff, 0xff, 0xff, 0xca, 0x02, 0x00, 0x00, 0x04, 0x00, 0x04, 0x00,
  0x04, 0x00, 0x00, 0x00, 0x1d, 0x00, 0x00, 0x00, 0x73, 0x65, 0x72, 0x76,
  0x69, 0x6e, 0x67, 0x5f, 0x64, 0x65, 0x66, 0x61, 0x75, 0x6c, 0x74, 0x5f,
  0x64, 0x65, 0x6e, 0x73, 0x65, 0x5f, 0x69, 0x6e, 0x70, 0x75, 0x74, 0x3a,
  0x30, 0x00, 0x00, 0x00, 0x02, 0x00, 0x00, 0x00, 0x01, 0x00, 0x00, 0x00,
  0xca, 0x02, 0x00, 0x00, 0x02, 0x00, 0x00, 0x00, 0x20, 0x00, 0x00, 0x00,
  0x04, 0x00, 0x00, 0x00, 0xf4, 0xff, 0xff, 0xff, 0x19, 0x00, 0x00, 0x00,
  0x00, 0x00, 0x00, 0x19, 0x0c, 0x00, 0x0c, 0x00, 0x0b, 0x00, 0x00, 0x00,
  0x00, 0x00, 0x04, 0x00, 0x0c, 0x00, 0x00, 0x00, 0x09, 0x00, 0x00, 0x00,
  0x00, 0x00, 0x00, 0x09
};
